[PAD]
[UNK]
[CLS]
[SEP]
[MASK]
!
#
$
%
&
'
(
)
*
+
,
-
.
/
0
1
2
3
4
5
6
7
8
9
:
;
<
=
>
?
@
[
\
]
^
_
`
a
b
c
d
e
f
g
h
i
j
k
l
m
n
o
p
q
r
s
t
u
v
w
x
y
z
{
|
}
~
¡
¢
£
¤
¥
¦
§
¨
©
ª
«
¬
®
¯
°
±
²
³
´
µ
¶
·
¸
¹
º
»
¼
½
¾
¿
×
ß
æ
ð
÷
ø
þ
đ
ħ
ı
ĸ
ł
ŋ
œ
ƅ
ƈ
ƍ
ƒ
ƙ
ƛ
ƞ
ƭ
ƴ
ƶ
ƿ
ǀ
ǁ
ǂ
ǝ
ȣ
ȥ
ȵ
ȶ
ȼ
ɐ
ɑ
ɒ
ɓ
ɔ
ɕ
ɖ
ə
ɚ
ɛ
ɝ
ɡ
ɣ
ɤ
ɥ
ɨ
ɩ
ɪ
ɬ
ɭ
ɮ
ɯ
ɲ
ɳ
ɵ
ɷ
ɸ
ɹ
ɻ
ɾ
ɿ
ʀ
ʁ
ʂ
ʃ
ʅ
ʈ
ʉ
ʊ
ʋ
ʌ
ʎ
ʐ
ʑ
ʒ
ʔ
ʕ
ʘ
ʝ
ʟ
ʦ
ʧ
ʰ
ʱ
ʲ
ʷ
ʹ
ʺ
ʼ
ʾ
ˁ
˂
˃
˄
ˆ
ˇ
ˉ
ː
ˑ
˖
˘
˙
˚
˜
˝
˞
˟
ˠ
ˤ
˪
˭
ˮ
˴
ͳ
ͻ
΀
΁
΂
΃
΄
΍
α
β
γ
δ
ε
ζ
η
θ
ι
κ
λ
μ
ν
ξ
ο
π
ρ
ς
σ
τ
υ
φ
χ
ψ
ω
ϐ
ϑ
ϒ
ϕ
ϖ
ϝ
ϫ
ϭ
ϰ
ϱ
ϲ
ϵ
ϻ
ϼ
а
б
в
г
д
е
ж
з
и
к
л
м
н
о
п
р
с
т
у
ф
х
ц
ч
ш
щ
ь
э
ю
я
є
ѕ
і
ј
ћ
ѱ
ѳ
ѵ
ґ
қ
ҝ
ҡ
ҫ
ү
ұ
ҳ
һ
ӏ
ӕ
ә
ө
ӽ
ԏ
ԑ
՚
־
א
י
ץ
ר
ש
׳
״
،
ا
ة
ت
ح
خ
د
ر
ز
ش
ط
ع
ـ
ف
ل
م
و
٠
١
٢
٤
٪
٭
ۥ
ߚ
ߝ
ࣈ
क
च
ण
फ
र
ल
ा
०
ก
ข
ง
ต
ท
น
บ
พ
ฟ
ภ
ย
ร
ล
ว
ศ
ห
อ
ะ
า
฿
แ
ใ
༌
ခ
ᄀ
ᄁ
ᄂ
ᄃ
ᄄ
ᄅ
ᄆ
ᄇ
ᄉ
ᄋ
ᄌ
ᄎ
ᄏ
ᄐ
ᄑ
ᄒ
ᅟ
ᅡ
ᅢ
ᅣ
ᅥ
ᅦ
ᅧ
ᅨ
ᅩ
ᅪ
ᅬ
ᅭ
ᅮ
ᅯ
ᅰ
ᅱ
ᅲ
ᅳ
ᅴ
ᅵ
ᆨ
ᆩ
ᆪ
ᆫ
ᆭ
ᆯ
ᆲ
ᆷ
ᆸ
ᆺ
ᆻ
ᆼ
ᆾ
ᇀ
ᇂ
ᇞ
᛫
ᴂ
ᴅ
ᴋ
ᴍ
ᴏ
ᴐ
ᴓ
ᴨ
ᴪ
ᴳ
ᴼ
ᵒ
ᵗ
ᵝ
ᵧ
ᵪ
ᵯ
ᵹ
ᶲ
᾽
᾿
῾
‑
‒
—
―
‖
‘
’
‚
‛
“
”
„
‟
†
‡
•
‥
…
‧
‰
‱
′
″
‴
‹
›
※
‾
‿
⁁
⁃
⁄
⁎
⁓
⁗
⁰
ⁱ
⁴
⁵
⁶
⁷
⁸
⁹
⁺
⁻
⁽
⁾
ⁿ
₀
₁
₂
₃
₄
₅
₆
₇
₈
₉
₋
₌
ₐ
ₓ
₣
₤
₦
₩
€
₱
₵
₹
₺
ℂ
℃
℅
ℇ
ℋ
ℏ
ℐ
ℑ
ℒ
ℓ
ℕ
№
℗
ℙ
ℛ
ℜ
ℝ
℞
℠
™
ℤ
℧
ℬ
ℰ
ℱ
ℳ
ℴ
ℵ
ℽ
ⅅ
⅓
⅔
⅗
⅙
⅚
⅛
⅜
ⅰ
ⅱ
ⅲ
ⅳ
ⅴ
ⅵ
ⅶ
ⅷ
ⅸ
ⅹ
ⅺ
ⅻ
←
↑
→
↓
↔
↕
↗
↘
↙
↝
↦
↷
↼
⇀
⇄
⇆
⇋
⇌
⇐
⇑
⇒
⇓
⇔
⇝
⇨
∀
∂
∅
∆
∇
∈
∊
∋
∎
∏
∐
∑
−
∓
∕
∖
∗
∘
∙
√
∛
∝
∞
∟
∠
∡
∢
∣
∥
∧
∨
∩
∪
∫
∴
∶
∷
∸
∼
∽
∾
≂
≃
≅
≈
≊
≌
≍
≏
≐
≑
≒
≔
≙
≡
≣
≤
≥
≦
≧
≨
≪
≫
≲
≳
≺
≻
≽
≿
⊂
⊃
⊆
⊕
⊖
⊗
⊘
⊙
⊞
⊟
⊠
⊣
⊤
⊥
⊿
⋄
⋅
⋆
⋊
⋘
⋙
⋜
⋝
⋮
⋯
⌀
⌈
⌉
⌊
⌋
⌜
⌝
⌢
⌣
⍴
⍵
⍺
⎕
⎼
␣
①
②
③
④
⑤
⑥
⑦
⑧
⑨
⑩
⑴
⑵
⑶
ⓒ
ⓝ
ⓡ
─
│
├
┤
┬
┴
═
║
╪
╳
█
░
▒
▓
■
□
▪
▫
▬
▯
▲
△
▴
▵
▶
▸
▹
►
▼
▽
▾
▿
◆
◇
◊
○
●
◦
◻
◽
★
☆
☉
☐
☓
☺
♀
♂
♢
♦
♪
♭
♯
✓
✕
✜
✧
✴
✶
➁
➔
➝
➢
➤
⟂
⟦
⟧
⟨
⟩
⟵
⟶
⦁
⦵
⧧
⧸
⧹
⨉
⨪
⨯
⩒
⩼
⩽
⩾
⩿
⪅
⪆
⪕
⪖
⪝
⪡
⪢
⫽
⬄
⬜
⬡
⬢
⬰
⬽
ⱪ
⸱
⿿
、
。
〈
〉
《
》
「
」
【
】
〓
〔
〕
〖
〗
〜
〝
〟
ア
カ
ヒ
メ
リ
レ
・
ㅣ
ㆍ
㎂
㎍
㎖
㎛
㎝
㎟
㎡
㎶
㒐
丸
参
囊
大
射
方
气
汤
注
消
液
清
潜
瘀
益
祛
粒
肝
肾
胶
芪
补
颗
饮
骨
꞉
꞊
ꞌ
ꞵ
ﬀ
ﬁ
ﬂ
ﬃ
ﬄ
ﬅ
﴾
﴿
︰
﹒
﹛
﹢
﹣
﹤
﹥
﹩
＄
％
＆
＇
（
）
＊
＋
，
－
．
：
；
＜
＝
＞
？
［
］
＾
＿
ｃ
ｉ
ｍ
ｐ
ｖ
｛
｜
｝
～
､
･
ｱ
ｵ
ﾀ
ﾓ
ￗ
￡
￢
￥
￦
￼
𝐑
𝐟
𝐫
𝐴
𝐸
𝑃
𝑐
𝑑
𝑒
𝑓
𝑖
𝑛
𝑜
𝑟
𝑡
𝑥
𝒆
𝒙
𝒞
𝒟
𝒦
𝒩
𝒪
𝒫
𝒮
𝒯
𝓟
𝓣
𝔇
𝔐
𝔹
𝕊
𝕜
𝖱
𝘗
𝛂
𝛆
𝛼
𝛽
𝜀
𝜃
𝜅
𝜇
𝜋
𝜌
𝜒
𝜖
𝜗
𝝁
##y
##q
##e
##0
##5
##3
##8
##a
##g
##p
##c
##t
##4
##6
##7
##2
##h
##d
##i
##n
##o
##s
##r
##w
##u
##k
##b
##f
##l
##m
##z
##v
##1
##9
##⋮
##°
##x
##j
##≈
##₃
##∙
##λ
##⁻
##μ
##ø
##∼
##→
##δ
##×
##™
##∕
##≫
##β
##±
##₂
##₆
##⩽
##€
##®
##∓
##α
##с
##γ
##£
##≡
##⋯
##π
##═
##⋆
##ρ
##µ
##σ
##₅
##₄
##˚
##ᅴ
##ᄇ
##ᅡ
##ᆼ
##ᄋ
##ᅲ
##ᄌ
##ᅱ
##₋
##ﬁ
##´
##₇
##ε
##ß
##＋
##η
##©
##б
##³
##е
##ı
##□
##∗
##∶
##⁄
##−
##ϕ
##⊂
##˙
##º
##∆
##↓
##κ
##∞
##⁺
##₈
##ﬂ
##ι
##⁸
##∷
##⋅
##²
##⁰
##æ
##↔
##₁
##ζ
##τ
##÷
##＝
##∘
##¹
##⁷
##⁶
##χ
##ω
##ϒ
##ℏ
##ˆ
##ф
##о
##↑
##⩾
##φ
##¬
##ϵ
##υ
##₉
##θ
##ψ
##─
##├
##≪
##ł
##♂
##ℓ
##➔
##ⅱ
##⁴
##≳
##ν
##～
##√
##≲
##＜
##к
##⁹
##⊃
##н
##∝
##₀
##⁵
##¯
##←
##ﬀ
##΄
##а
##ə
##◦
##≃
##≅
##œ
##ɛ
##⧹
##⍺
##ⅰ
##ɑ
##ο
##⇒
##♀
##˂
##○
##▴
##＞
##⊗
##р
##в
##ж
##℃
##∈
##∧
##⊙
##¢
##м
##ᅭ
##ᅵ
##ᆫ
##ᅦ
##∑
##у
##з
##л
##і
##≦
##≧
##ˮ
##≒
##﹥
##≊
##¼
##△
##ᄅ
##ᅩ
##ᅥ
##ᆨ
##đ
##⊥
##т
##ⅳ
##˃
##ƒ
##ξ
##│
##¾
##ⅲ
##ð
##ϲ
##ⓒ
##␣
##┴
##∥
##▪
##⧧
##𝛽
##➝
##ɣ
##∇
##ш
##ᶲ
##и
##г
##♦
##∫
##∩
##½
##ﬅ
##⇋
##ⅷ
##˜
##⧸
##¨
##⨯
##∣
##ª
##∨
##ĸ
##●
##▬
##¥
##ⅴ
##⇑
##⇓
##⇆
##⬢
##∏
##ɕ
##℅
##х
##⇌
##ː
##∪
##⊕
##ǀ
##˖
##ɒ
##⬜
##ᆯ
##ᆸ
##д
##𝐑
##⇀
##˝
##≐
##þ
##↷
##ɹ
##ʃ
##ƞ
##⟶
##⇄
##┤
##ц
##я
##ߚ
##¸
##п
##∴
##⇔
##№
##ʱ
##↦
##ͳ
##⪅
##▵
##⇝
##ɚ
##ᆺ
##ɐ
##ɪ
##②
##ҡ
##⊠
##∂
##ꞌ
##≍
##ˇ
##▒
##ю
##☓
##∖
##ˉ
##┬
##⎼
##ₓ
##ς
##〓
##¦
##ᵒ
##⋘
##ⁱ
##ᆷ
##ᅳ
##⅓
##㎍
##■
##♯
##΀
##≿
##ү
##ᄉ
##ϭ
##˞
##ɸ
##∅
##⪢
##↝
##ᴂ
##𝛆
##ᵝ
##˄
##ᵧ
##ᅪ
##ᄒ
##ᄀ
##ᅧ
##ᄃ
##∊
##ᅟ
##¤
##☉
##ʰ
##ⓡ
##ᄆ
##ϐ
##ר
##א
##ש
##י
##｜
##▓
##ч
##ь
##ᄑ
##ᆩ
##ᄂ
##ˑ
##⊖
##⦁
##ℑ
##ℇ
##ⅺ
##⋜
##᾿
##ᅢ
##￥
##║
##є
##ₐ
##ᅮ
##ʼ
##қ
##ҫ
##ฟ
##น
##𝒯
##⊟
##฿
##ɔ
##ʁ
##⋙
##ʌ
##ᅬ
##ⅶ
##⪡
##ϰ
##ᆾ
##⊘
##ـ
##ᇞ
##▸
##✕
##⋄
##ℤ
##ㅣ
##ﬃ
##↼
##อ
##ง
##ᵗ
##ⅸ
##ɖ
##ﬄ
##ʊ
##⿿
##╳
##﹢
##΍
##▿
##ˁ
##˭
##≺
##₣
##ϖ
##↕
##⬰
##ᄏ
##⬡
##⪆
##↘
##ᅰ
##₵
##า
##ใ
##ต
##บ
##⊿
##𝒞
##ℒ
##ɳ
##ѱ
##ل
##ƛ
##ϱ
##⨉
##𝑖
##𝑓
##𝑒
##𝑟
##𝑛
##𝑡
##𝑜
##ว
##⋝
##₌
##ᄐ
##ℝ
##ŋ
##ᆻ
##ก
##∽
##ѕ
##ӏ
##٢
##᾽
##ħ
##⬽
##ɡ
##ㆍ
##＾
##ɩ
##ᇂ
##℧
##ⅻ
##ǁ
##ɷ
##ͻ
##⌀
##𝑐
##ѵ
##ɤ
##㎛
##˘
##ʒ
##꞊
##ा
##क
##𝜀
##ᴏ
##ⅵ
##￢
##ﾀ
##ﾓ
##ℱ
##ᴼ
##ｱ
##ʲ
##ј
##د
##م
##ة
##♭
##ᴋ
##΃
##₺
##℗
##꞉
##ʹ
##ᴐ
##ز
##ع
##ر
##و
##ᆭ
##↗
##﹤
##ᅨ
##ƴ
##𝑑
##メ
##リ
##カ
##≽
##≣
##ʾ
##ᄎ
##ᅯ
##΁
##⊆
##ƙ
##ʂ
##ℕ
##ش
##ا
##ف
##⟂
##≏
##ᆲ
##ᆪ
##ʉ
##ｵ
##℠
##ｍ
##ƭ
##ल
##⊣
##ˤ
##ᄄ
##һ
##∀
##ᅣ
##░
##ɾ
##∟
##ꞵ
##≔
##١
##ت
##✓
##ʘ
##▼
##ɮ
##ｉ
##ｖ
##ʐ
##٠
##≑
##₦
##ヒ
##ǂ
##𝜃
##℞
##⌢
##ϑ
##ߝ
##ɵ
##⩿
##ȥ
##ⱪ
##⅔
##ȼ
##レ
##ⁿ
##˴
##𝒆
##♪
##☆
##⨪
##𝓣
##█
##٤
##⩒
##ɬ
##ƈ
##ᴍ
##⌣
##𝜅
##ʷ
##③
##≤
##ћ
##∠
##э
##ѳ
##ｐ
##ℳ
##◊
##र
##ण
##𝐟
##∎
##⇐
##ʎ
##☺
##⟵
##ℜ
##㎖
##ˠ
##แ
##ล
##ะ
##ข
##ภ
##พ
##ย
##ร
##ท
##ศ
##ʺ
##ⅹ
##⫽
##①
##∋
##ۥ
##ℂ
##≻
##ᴪ
##ǝ
##ᄁ
##΂
##ȣ
##𝜋
##ɓ
##ɯ
##ᴓ
##ө
##⑩
##ℵ
##₩
##★
##𝛼
##ᇀ
##④
##ti
th
##er
##on
##en
##es
##ed
##in
the
##al
in
an
##or
of
##at
##an
##ro
##tion
and
##as
##it
##ic
##ar
##is
##ent
##ec
##re
##el
##ing
to
##ation
##ul
##et
##ol
##om
##ac
##ur
##os
##ith
##us
##ve
##id
##ati
with
##ly
##le
con
st
##th
##ere
##ter
##ig
pro
for
re
##ts
##uc
##od
##il
##em
as
##if
was
##ated
##un
##ess
##am
##ce
##im
##tr
##ow
ex
is
res
##um
##oc
were
##op
##ut
##tic
##ity
##ir
##ion
on
##ents
ac
com
##ate
that
##ab
##ot
##og
al
be
##ys
ch
##ud
##ev
##ag
##ell
by
##ad
##ain
##ap
##rom
wh
##ical
##ect
##ant
or
pr
##ers
##ib
su
##pl
##ine
##ment
pati
##ase
##iv
##ep
im
##tin
tr
##ff
dis
at
##igh
ad
us
we
##tiv
inc
this
##ph
comp
patients
##ence
are
##qu
sp
en
from
##ure
cell
stud
##tive
##iz
##ay
##ign
##ial
sh
un
##ific
ne
ind
##te
met
##ies
##ch
##ations
per
##fer
##per
##ress
rec
##ous
##ort
##ip
##orm
##ans
ass
##ens
ph
eff
##ear
##evel
##ore
resul
##rou
##ge
##ons
##oun
cl
##ia
##ely
gen
##est
ap
##act
##ting
sign
##bs
##enti
inf
##ular
##ary
##ition
##yp
dif
##oth
##olog
par
bet
##erm
high
pre
inter
##ese
rel
##ased
can
##cl
cont
tre
##ver
not
pl
results
ha
##ors
co
de
##ding
imp
##yl
these
meth
ev
study
##ym
resp
car
exp
##ich
pos
##roup
##ist
me
##st
##der
differ
str
##enc
trans
##ance
##ose
incre
##ative
di
group
signific
##ath
am
##een
##duc
anal
##ection
sur
##ied
significant
cells
reg
mod
##and
##ast
##ong
##ual
det
af
rep
spec
pres
##iti
cons
activ
all
method
which
##ween
##able
have
##age
between
sc
inv
show
##vi
##rol
mic
##all
##ory
##00
##oci
ab
int
##end
##ide
after
ar
##ression
##oll
##ound
cor
##ater
treat
##atin
he
##ros
than
no
##ach
##ved
##usion
##ug
compar
##ects
tw
##ally
##ari
##ected
##tein
##one
se
##alu
##yst
##ther
level
anti
##ight
##yn
##ates
##unc
med
app
ag
##ever
##ases
##ech
##cr
associ
##ost
##ive
treatment
##ak
##ective
##our
using
##form
it
##tim
le
##ility
bl
##ome
but
##ox
has
been
protein
##entr
two
##unction
des
dur
##ted
##na
control
analys
##ulation
el
ob
##ood
##ized
bi
##ating
##ard
##evelop
##ue
more
low
dec
develop
hy
may
##mun
##ang
##anc
both
##osis
##dition
##so
mon
sub
clin
##ree
ca
year
ser
##action
dise
10
dat
fl
their
red
##ass
##yt
##hib
##cess
also
tim
dep
##gg
##pt
##ill
##ob
##acter
##ri
##ures
syst
used
concl
##ub
##cer
##uced
during
##ectiv
there
id
##ined
##ological
##erap
had
##agn
##iss
function
##ism
fact
meas
dr
##uld
system
respons
##ogen
man
##ew
vari
gl
clinical
obs
data
em
##br
##out
suc
incl
##gen
##ond
heal
##ution
##atic
es
how
methods
out
associated
##pp
under
sim
##urr
present
form
##plic
##ack
analysis
sugg
sam
over
acc
##aph
##etic
##ium
one
model
conclusion
includ
ris
foll
health
typ
##uct
##ult
increased
produc
use
##inding
activity
compared
significantly
pol
##ays
disease
non
conc
up
syn
##ained
inhib
expression
levels
ins
obser
##gr
##ven
other
end
found
##ace
##ole
##ization
follow
time
##ici
qu
##entif
##ild
oc
##eth
##ite
##ential
perform
##itive
immun
20
##ogr
##und
risk
fr
exper
##tig
##ane
dem
evalu
gr
determ
cr
##ants
pot
##ail
different
studies
effect
br
hum
identif
effects
showed
##ments
indic
##ile
its
based
exam
##atory
##ish
appro
##tal
prov
##row
##estig
therap
investig
char
partic
concentr
##oid
##als
however
tum
sm
path
ma
report
min
sel
##mon
##ery
##ities
most
##ences
##adi
specific
12
infl
##ectively
diagn
##onstr
##ma
assess
##ple
contr
rem
##esis
##ency
ep
when
##ination
our
years
##av
subs
##idence
##etr
##tern
def
op
mul
supp
##ormal
acid
age
##ren
into
decre
##ability
only
##ange
well
higher
intr
##ograph
##tical
##oph
three
19
##erg
##ork
cancer
##iqu
##ently
test
##ions
##ited
peri
##ology
##ber
##inal
pred
gener
mal
human
##echan
##ept
induced
##ature
##arg
##ement
such
##af
mol
new
##ible
impro
observed
character
import
num
sec
struct
mechan
##til
##ord
groups
##ix
##ik
patient
##ov
##ugh
##rel
fir
sens
demonstr
child
##rop
occ
col
##res
ox
chang
loc
##tid
##ron
##gh
rate
##aining
blood
kn
##lex
cases
##ute
post
related
##use
surg
process
##cop
##ark
tiss
micro
##ok
##ured
term
rat
who
##tit
fe
first
##view
##oma
fur
suggest
valu
aff
##uction
gene
response
mem
disc
addition
##amm
##echn
##ural
cal
po
##rough
neu
##ough
##dro
type
##ten
##osph
inj
those
grow
##och
development
##osed
##own
techn
##round
##ior
among
sol
##ful
respectively
##its
##ulated
condition
conf
##ines
mean
care
cd
##vention
##ental
molec
recept
##ucle
15
##ital
##les
month
drug
factors
del
through
mg
##ains
##arly
pop
total
hyp
ps
ol
##omen
changes
il
##fore
increase
prim
cyt
bas
##ize
correl
role
invol
00
potential
##di
##ivid
obj
##endent
prop
long
prob
experim
##ould
phys
##ational
##asc
##tained
plas
subj
##xim
fre
normal
gre
##crib
##urs
finding
my
##earch
medi
mus
important
##ived
stim
back
adm
##eng
lower
main
##vers
predic
##roph
##omy
could
simil
##led
mechanism
11
##over
##istic
##ha
ii
##ex
##ek
within
sym
hist
##ds
##cin
performed
##gan
infection
so
##air
where
##eter
##ody
sequ
number
##ene
comb
frequ
##osp
lik
extr
sever
hyper
therapy
95
review
##ms
conclusions
prog
##ption
##ps
outc
less
coll
##ider
while
multi
##ade
flu
##cle
mm
cap
each
##ether
children
requ
antib
hydro
bec
14
treated
reported
##iver
lim
including
##val
similar
##ages
period
poss
vir
growth
tumor
do
fib
some
complex
aim
##orph
ext
##ores
##ock
women
##vious
##omes
positive
##arge
radi
pur
describ
pat
reve
##ne
200
13
dna
findings
##ric
##otic
cy
chem
factor
##ptom
prom
did
without
##ival
ret
30
inhibit
##pha
week
mo
cardi
##ividual
mut
work
##ples
prot
##ground
tem
er
case
##zym
four
##iel
abs
##tivity
mice
they
##ily
individual
##ues
consider
dir
background
25
##istr
##abol
tissue
calc
18
days
approach
pe
av
##ascular
##ativ
surf
##ness
months
previous
vit
##ise
need
curr
##ale
##otyp
isol
##oper
phosph
identified
common
sing
measure
##ically
reveal
##ty
hem
maj
##ake
##iter
sev
major
vis
##oh
##ross
beha
synth
techniqu
##equ
organ
nucle
design
caus
##fl
##are
presence
research
##plet
behavi
analy
second
provid
mark
##ality
differences
##ocyt
##med
##ified
further
##uss
surv
mater
vol
symptom
reduced
##atal
small
16
metabol
24
obtained
##ced
binding
hosp
class
serum
dose
##ning
influ
##plications
rats
##atis
##crip
cult
mat
##par
initi
evidence
##ymph
due
single
early
##ography
##ice
und
sk
day
lip
expl
inform
admin
##acy
about
species
##ety
##lish
##ung
##ties
enzym
##ft
decreased
sl
##ately
conditions
05
receptor
##itis
bre
primary
alth
##ension
lymph
50
although
os
subjects
##hip
##esting
##ogn
qual
diagnosis
enh
lab
ele
measured
##ites
concentration
##old
##ink
ml
rati
particip
##trib
##int
arter
##ins
ci
##ressed
proteins
studied
neg
##roscop
concentrations
fem
population
##ectr
##oles
##las
pers
##ither
##ests
resist
improve
100
alpha
mr
lif
rece
hep
should
beta
##ication
range
##ateg
brain
pattern
genes
developed
investigated
##ials
##ych
objective
samples
##ength
##gf
plasma
line
press
lead
set
phen
membr
if
ec
following
##erv
interaction
revealed
##vir
##emia
##erc
##amic
aut
##aging
reaction
demonstrated
##arget
17
der
discuss
analyz
coun
dependent
target
##plant
anim
surgery
ang
prol
##ening
##onal
vs
several
chron
surface
##eptid
##ulin
est
fam
relations
##hy
inflamm
##tan
##por
##osure
oper
##ind
gluc
##ield
##aneous
large
proper
molecular
hospital
stand
##roduc
elect
kg
adv
##ick
les
here
examined
##asing
complet
##cent
##oss
survival
appear
weight
prof
functional
chrom
ul
effective
hear
##ensity
evaluated
requir
information
liver
unders
proced
values
quan
deg
again
##tered
##az
prac
local
201
phase
estim
polym
stress
##cs
electr
##tis
##ax
determined
region
##tions
val
standard
diff
ir
neur
##ire
bone
param
relationship
nec
whether
rates
01
determine
acute
##ause
chronic
mass
body
free
cle
##arm
pain
sch
sus
diab
enhanc
water
occurr
either
equ
before
pul
life
##ving
intervention
bacter
will
001
characteristic
pressure
conduc
##onic
gu
##omic
included
greater
ur
quality
##ian
same
various
##yr
##ivers
##icient
reduction
pathw
activation
structure
##uth
provide
injur
dim
##sp
thus
##viron
support
against
many
##plication
##ator
##ulations
manag
hel
ro
ratio
##ocytes
##orb
contrib
ren
shown
##lement
cir
multiple
vitro
nov
##ification
##iven
signal
##tain
exposure
##amin
symptoms
known
gly
current
##atively
direct
##operative
sep
medical
dom
##ules
purp
psych
prec
exc
nan
whereas
vi
negative
genetic
production
because
distrib
carb
##andom
##eters
##ission
ach
fail
flow
formation
21
fac
##eu
sal
environ
##rome
detected
##amine
adj
random
compound
##ostic
##ellular
rele
40
strong
##gram
##ensive
##tric
##ateral
##uted
recom
##ists
##ometr
possible
pub
transcrip
mort
##itivity
##ude
association
loss
part
nm
##up
##emic
pap
any
##cept
reduc
compon
##ae
##ct
ms
##icity
change
repres
##ocy
##ynamic
##nal
controls
membrane
success
order
##eration
confir
sex
involved
muc
weeks
cent
##otherap
six
performance
muscle
responses
avail
general
size
##atus
mechanisms
##tif
difference
oxid
##gn
commun
mortality
particular
lo
virus
##ablish
temper
##ient
properties
tox
hypoth
indep
five
establish
strateg
assessed
cycl
models
experi
lung
statis
consist
##ann
resid
##uk
synd
differenti
##elial
##istration
state
increasing
overall
##atures
behavior
##ision
carcin
purpose
identify
men
000
##ochem
22
sin
old
60
##ward
novel
management
##olution
contin
cm
regul
##aw
heart
##aps
##ised
super
diet
poly
presented
being
analyzed
proble
amin
##inant
scre
rap
mac
##ologic
##eral
neuro
magn
ct
surgical
link
##estion
contrast
##eutic
##app
area
like
self
imaging
##opath
death
phot
foc
##ording
intra
frequency
viv
environment
ov
##acc
eth
##iciency
##iving
evaluate
volum
allow
##reg
##itor
active
dys
outcomes
##ie
circ
preval
##dr
##active
result
recent
therefore
##otherapy
parameters
severe
outcome
##eric
centr
peptid
stage
value
vivo
very
isolated
##elet
add
##ographic
tra
distribution
##ergy
short
indicate
technique
decrease
##ust
mit
enzyme
##oses
resistance
##odies
##etes
enc
##verage
##lor
detection
participants
morph
nit
index
sw
injury
experimental
renal
optim
##tinal
##orts
systems
male
hom
induc
23
administration
block
site
cross
previously
##ides
inhibition
stimul
accur
sensitivity
vers
diseases
##icular
ve
##ogenesis
dev
characteristics
##ended
healthy
##osition
##ably
left
tested
syndrome
##tex
##amp
described
prepar
exhib
gas
assay
therapeutic
pregn
rapid
##ocial
bene
##ule
att
highly
##asis
considered
animals
##rh
##tegr
glucose
##ancy
##iat
##ull
##oplas
artic
fat
mediated
investigate
maxim
rh
benef
fil
correlation
incidence
##inc
followed
atten
available
containing
199
##ours
##eding
family
##iological
##ns
lesions
cere
sequence
then
##tically
##de
status
##ode
saf
##ylation
tub
##ances
better
##ices
##ogenic
types
kin
sample
da
##ids
##ouse
##ters
improved
##ially
##of
prolif
##red
hiv
relative
##roscopy
##inary
caused
##olic
##opt
impact
28
##ops
##ount
derived
##ner
individuals
##ocard
energy
breast
##ulf
##ually
##ands
surve
nor
required
##itation
her
effic
##ces
via
inflammatory
##otype
##verse
insulin
cause
pharm
te
release
solution
##els
integr
temperature
##iev
cardiac
field
##plied
hypert
##ygen
pc
##ey
##acellular
adh
secre
percent
net
amino
record
##terior
bel
ultr
35
sites
ability
dist
poor
spect
mrna
##omp
expressed
influence
approxim
combination
assessment
produced
analyses
conducted
physical
prevalence
light
##arc
##eline
program
##therm
##ves
received
comparis
indicated
practi
##itu
useful
length
liter
know
focus
volume
##roc
##line
##oy
complications
##ectomy
them
given
elev
content
refer
##tial
skin
diabetes
##pr
tak
##tine
##monary
##ressive
##ling
##pec
monitor
abn
evaluation
sour
metast
visual
##ortion
##romb
##ibility
drugs
26
ver
density
larg
features
##cence
adult
recover
average
independent
##ols
likely
even
correlated
heter
efficacy
scale
ill
valid
according
hc
immune
##ysis
synthesis
tumors
cat
continu
quantit
lig
dam
impair
mar
separ
compounds
diagnostic
acet
hr
##abil
##enz
injection
abnormal
applied
##ones
play
question
characterized
coh
often
apopt
orig
##uble
recogn
##izing
thir
ventr
good
demonstrate
initial
cop
off
##vent
oral
##resp
##order
##go
ic
cre
introduc
chall
vascular
##cep
##mit
social
recurr
activities
medic
oste
central
transcription
angi
transfer
fraction
##orders
##ators
##tanding
##oung
might
young
##vement
spectr
27
##medi
least
paper
mix
45
made
##mic
##orption
failure
tissues
glyc
pa
##otox
predict
pd
util
##ored
measures
##tle
cellular
##ising
carr
##ecting
underw
enhanced
represent
cs
##enced
32
measurements
receptors
##rees
disorders
score
transplant
biological
nat
female
aden
areas
##thermore
furthermore
experiments
cri
procedure
##ledge
##yro
food
##ask
##ta
stimulation
asp
understanding
cur
epid
techniques
subsequ
literature
times
regulation
successful
knowledge
##ales
##art
90
discussed
emerg
moder
strains
rna
diss
adul
80
minim
regression
31
observ
##ables
##work
combined
regions
degrees
36
processes
##rob
position
repe
dynamic
##tib
##omal
approximately
##lic
tests
since
fin
ed
oxygen
few
underwent
baseline
arr
patterns
29
pathway
##ocyte
median
would
culture
##uture
##bers
##igr
events
##rogen
step
affected
##ustr
bm
proposed
##olar
48
artery
air
prior
thromb
nurs
progn
smok
occurred
pulmonary
resulted
ey
right
collected
confirmed
limited
antibodies
fluores
##ont
biom
coron
ess
##iotic
suggested
##rosp
educ
##opro
antibody
interactions
pcr
##omas
##eness
##erve
antigen
neurons
cogn
##da
##ier
##ochemical
achiev
epith
##ytic
section
ax
##ower
sensitive
methyl
electro
mid
key
33
criter
constr
##lying
hydrox
agg
##iatric
##otor
horm
##till
suggests
##ru
complete
pharmac
labor
network
comparison
practice
versus
##ler
lack
auth
gam
refl
materials
serv
inhibited
carcinoma
##utr
suggesting
increases
alter
recomm
structures
endoth
application
established
setting
trials
70
seen
guid
additional
exerc
chemical
##ke
place
hal
vacc
history
down
invas
isch
catal
altern
periph
cer
##ovascular
controlled
##urn
37
malign
screening
coronary
relev
across
alc
iii
provides
chain
lay
accum
##10
examination
strain
corr
transp
##ave
mir
duration
adults
scores
displ
electron
##ious
disorder
bir
action
prost
promo
##ploy
depend
mouse
espec
plat
iv
substr
especially
hand
secondary
##onding
future
##ining
##istered
##inetic
mel
training
capac
##ogene
seg
75
##acts
corresp
selected
eight
proliferation
consum
##rosis
##terol
sil
defined
##nf
rad
##oscop
##oxid
##ethyl
##fusion
##emb
##last
agents
sum
##bral
sle
##ii
alcoh
##iratory
##pa
inhibitor
lat
colon
peak
##grad
detect
polymer
plac
34
##utes
bar
##ondr
et
02
kid
recently
help
toward
article
still
##set
ultras
##aff
##ture
desp
##me
basis
kidne
side
##ld
ref
go
ant
despite
##orbid
cours
components
##ying
damage
glut
lit
head
##estinal
lipid
leuk
molecules
chlor
describe
structural
##agon
suff
postoperative
clear
bil
phosphor
critical
improvement
apoptosis
##bry
prosp
mes
fold
hip
peripheral
diffic
##eph
cost
##ibr
graf
##tre
adap
criteria
distin
##ets
metabolic
##agen
fer
dop
kinase
ion
necess
chann
##ancre
real
##isting
##yroid
signaling
exercise
##ochondr
chromos
populations
calcium
don
peptide
bio
infected
provided
daily
##iting
depression
doc
alone
nerve
differentiation
##ectives
aged
task
strategies
##odes
load
prevent
trial
sem
##occ
great
affect
ra
series
functions
##ergic
does
therm
rang
na
od
##esth
interval
ampl
fet
activated
consistent
facil
point
situ
##entially
embry
concer
sn
##anol
essential
perce
##pre
testing
42
eng
##iversity
retrosp
cou
frag
sod
##enting
elevated
moreover
##ints
##50
acids
38
employ
resulting
cognitive
importance
reduce
plant
community
hours
##ems
top
pancre
prote
absence
onset
mitochondr
cryst
glob
marked
pregnancy
simple
##ove
myocard
medium
rare
##ather
products
linear
implant
convention
degree
##otid
##umin
survey
##ptake
questionna
remains
achieved
log
##omer
transport
las
lines
access
reli
sci
particularly
migr
seven
infections
##bo
material
##oint
microm
natural
##ulate
capacity
transform
sulf
##oids
toler
lear
##function
metabolism
##ca
pig
cytok
##trans
##arding
##ument
diagnosed
##ophil
##ople
##olesterol
fract
power
##ef
##uter
extract
procedures
older
problems
##etry
##ayed
##pri
states
open
markers
##ivery
transl
transm
require
##ogl
fluid
dig
doses
appropri
##dom
quantitative
##arb
delivery
ear
bacterial
##oster
##12
exposed
examine
label
underst
nutr
upon
##arr
recovery
wor
##ics
conventional
highest
magnetic
uptake
carbon
tog
stable
progression
##utaneous
biops
undergo
variables
reproduc
together
clus
pathways
##put
##ortic
experience
proportion
induction
##ched
cardiovascular
course
calculated
stro
rest
##thr
##imens
experiment
stem
statistically
sequences
administered
##icians
strength
gamma
maximum
cycle
##nas
irr
##ogenous
origin
##atitis
consequ
pair
##uff
##se
act
##isms
component
kidney
##itional
adverse
estimated
iss
##encing
respond
whole
host
nuclear
regarding
summ
people
alcohol
ge
##brid
cohort
polymorph
##icial
##eti
respiratory
resistant
internal
bro
##oz
antagon
pp
65
wall
linked
##ession
carried
tempor
public
##gl
much
198
prefer
lact
objectives
ventricular
include
safety
inflammation
##inity
43
little
needed
03
##idine
39
mutations
domain
##anced
wid
inhibitors
variation
##titution
mak
##osa
##istry
mamm
sleep
##rolog
environmental
##ank
hypertension
special
severity
best
modified
##other
fas
terms
birth
##anning
dimension
systemic
laboratory
##rix
distinct
specificity
protoc
##hydro
exhibited
##pling
hb
animal
ped
##acr
along
motor
subsequent
##activity
bp
taken
##ered
var
ster
relatively
endothelial
stroke
##roscopic
ng
identification
pt
authors
const
recorded
problem
fix
home
pm
cholesterol
alg
##ceptib
monitoring
44
countr
evolution
##esized
chemotherapy
##encies
appar
selective
conn
radiation
microb
indicating
##ense
cys
mt
##cler
having
55
##oding
##bp
atp
susceptib
bal
randomized
##ulating
##uring
spati
his
dysfunction
star
##ea
##ococc
##sh
acqu
late
yield
amount
macroph
degrad
reson
spe
wide
incor
appropriate
hypothesis
##inated
limit
##atives
traum
restric
mc
##eff
relevant
confidence
liqu
##io
able
moderate
##que
thick
source
physiological
measurement
chromat
bacteria
bound
remov
recomb
##onomic
platelet
##dl
excl
##otypes
interventions
##utive
causes
microscopy
treatments
##mediate
designed
tom
composition
underlying
##ame
ht
hs
sd
##oral
arterial
double
corresponding
matrix
72
intracellular
adoles
##fact
mainly
grade
efficiency
##kn
compare
accuracy
approaches
41
hybrid
males
stre
implement
hepat
quantif
intensity
gran
occur
soci
ven
substan
alk
contex
attention
prevention
cp
continuous
means
##rin
contribute
##urb
search
cos
46
##itude
cerebral
females
##ights
strategy
##oxy
##uded
antibiotic
diabetic
mental
trig
##fs
##ressing
education
wild
difficult
famil
myocardial
alternative
anterior
developing
later
necessary
repair
gastric
terminal
##hood
world
##ometry
selection
cho
reach
though
##oprotein
adjus
##uration
detail
half
secretion
reviewed
shif
arg
memory
ter
frequently
tnf
chin
national
##amide
##neum
extent
99
images
susp
promot
##anes
##ending
sodium
predicted
shows
chol
opp
##yth
##ique
infants
##ams
04
stability
stimulated
##ariate
shap
##enty
directly
cd4
52
students
regard
repl
##oglob
bur
forms
challeng
genome
intake
transition
##rine
color
imm
appears
tool
##activ
##ished
##ometric
##ges
##illary
gel
persist
third
toxicity
##ool
adren
full
epithelial
incorpor
inh
larger
leading
facilit
47
lesion
err
interfer
pi
hepatic
instr
isolates
generation
revers
plasm
hormone
##orn
mil
she
rs
view
resolution
coli
prospective
diam
last
##cc
processing
##yg
multiv
tetr
deriv
led
##iety
iso
reports
bo
transplantation
##izes
viral
atr
ta
generated
must
##ady
applications
##orbidity
neurop
67
cand
##11
##ee
eu
##eal
involvement
liquid
americ
56
questionnaire
inhibitory
datab
regulated
metal
aimed
vas
##ils
eryth
##tively
fluorescence
simult
##plicated
placebo
##icle
pneum
mri
allel
above
strongly
##orrh
enzymes
simultaneous
ever
complexes
accumulation
prepared
learning
reactions
54
rather
##ench
##ectiveness
adhes
##etric
analog
remained
##ened
##ering
enter
variety
lys
alb
##enic
##obacter
##ings
ca2
gast
context
64
##ope
investigation
effectiveness
urinary
advanced
eas
unc
sperm
candid
smoking
categ
exist
##lu
anx
mutation
tb
conj
clinically
unique
comm
49
resonance
spinal
satis
reconstr
rab
yet
statistical
oxidative
unit
myel
princ
reference
##tile
53
plants
##uv
percentage
nerv
dm
haem
##ector
##venous
stages
nine
substrate
reas
incub
hp
cath
##ively
profil
malignant
vess
disp
##tially
##ecutive
soft
##ga
finally
rt
ss
optimal
grad
lateral
kinetic
##olip
pyr
cortex
mechanical
##ars
bond
resection
subun
ns
specif
##land
removal
emb
agent
partial
systematic
lum
read
##ots
laser
publish
layer
##artic
specimens
responsible
pb
longer
dimensional
maternal
ann
introduction
85
profile
transmission
significance
extre
##man
supplement
##oxide
##ella
##arily
white
##la
paras
unkn
##opathy
services
iron
squ
fatty
unknown
cultures
efficient
recurrence
##orting
certain
ten
mild
interest
asth
collagen
call
spont
image
mob
cas
##lation
trad
fish
##irus
induce
##ired
dog
clos
spontaneous
produce
51
contact
57
pass
highl
now
way
mitochondrial
##iology
58
##aces
retrospective
affinity
##otide
##ectal
proj
##tral
##estern
consumption
product
62
##aine
auto
commonly
##acch
assays
spatial
neural
infer
advant
invasive
fetal
fluor
interpre
##onucle
published
weak
##inations
rot
ure
##zed
replac
trend
##ula
##onia
##hold
majority
antic
63
##ident
neon
ray
aw
predom
interview
numer
##otrop
rou
center
fav
olig
currently
germ
obes
global
ble
cytotox
##tation
nature
dynamics
cerv
extracellular
##erative
##astic
##ients
##den
intern
medicine
fed
tri
mutant
regulatory
infusion
formed
nanop
temporal
obesity
event
##elling
operation
subst
irradi
divid
implications
##dominal
aer
hemat
constit
fit
sexual
basal
potentially
extern
prostate
differential
coeff
96
##itr
slow
occurs
upper
vitamin
aggreg
anat
##pled
specifically
countries
force
##ieve
intestinal
asym
59
pg
66
reactive
##ohist
##for
melan
ste
##phal
constant
near
agre
dil
marker
##o2
68
attrib
receiving
##itable
rr
points
staining
chromatography
neurolog
biopsy
histological
##arin
thyroid
cu
confirm
##ify
relation
##itary
segment
norm
prolong
algor
micros
manner
##erved
reducing
algorith
profession
##lyc
recommend
solid
immunohist
western
sa
anesth
gender
ves
tend
electroph
den
##alian
##obic
posterior
successfully
##most
involving
generally
aims
attenu
expected
become
gastro
morbidity
twenty
##aged
fram
broad
completed
cultured
organic
base
toxic
agon
##ectin
degradation
acetyl
ech
located
73
assist
molecule
past
pse
dietary
##itone
adip
sr
core
avoid
resour
another
frequent
##ocal
intravenous
##tration
cad
odds
mixed
barri
cervical
prognosis
tract
relationships
rib
tel
purified
##ocl
external
matched
anxiety
aortic
##ytes
##osin
radical
widely
##cers
cb
##less
members
##ching
benefit
thres
oh
ds
abnormalities
abdominal
humans
cf
##tility
dl
joint
orth
benz
##onin
pseud
theory
##eta
neuronal
tomography
ifn
##hyth
recru
conclude
0001
undergoing
predictive
##uls
absorption
ads
igg
attem
disch
person
promoter
##ories
eye
living
78
##ema
adjusted
divided
thor
wave
##osing
manif
assemb
##sis
##ared
map
prognostic
hydroxy
flex
rabb
##odynamic
leg
retin
slight
##gens
cc
conform
space
##ields
almost
pathogenesis
consecutive
determination
particles
fo
comparable
interf
##oring
altered
vary
##eletal
far
subc
61
peptides
##ontal
associations
##elium
residues
contribution
##lasts
defin
graft
##otion
diameter
optical
##to
##enge
complement
##uts
remain
around
inser
##olytic
##53
##arian
variable
oxide
gh
##ections
##adder
account
elder
rob
aspects
sed
alterations
76
throughout
feed
du
classification
74
chromosome
accurate
##he
##ls
##aryn
##onch
channel
soil
##alk
69
accept
rev
superior
##aring
##crim
phosphorylation
nanopartic
##elines
respect
usually
document
impaired
pancreatic
##olved
ga
hypox
##ounts
protocol
antioxid
gal
ligand
exch
##ico
promising
recip
##ogenetic
hydrogen
elements
pk
##esia
heterogene
leads
concept
recombinant
##16
##ologies
lymphocytes
behavioral
recognition
convers
thickness
98
migration
ful
phenotype
challenge
nas
gest
86
allows
sources
roles
##aves
spl
discover
myc
83
discrim
every
vaccine
lap
wound
fung
emph
urine
plus
##osyn
82
behaviour
77
##osite
##tering
92
##rot
ana
tumour
ratios
proxim
elderly
##immun
vel
asthma
making
units
84
impairment
uv
guidelines
ow
ultrasound
deficiency
ty
plays
elim
school
##isc
hipp
som
##dle
##itud
88
cortical
71
obstr
fast
membranes
requires
rapidly
infarc
cord
occurrence
##ats
root
pac
phosphate
extraction
##ori
repeated
bronch
basic
adequ
polar
synthesized
cereb
por
sph
##ention
spectroscopy
##uary
profiles
appeared
mode
##osine
nf
pen
spectrum
numbers
macrophages
cis
biochemical
fragment
93
##ermal
multivariate
##erex
gp
neut
pla
computed
epidem
##ectivity
device
##lo
epis
md
inn
abund
traditional
##reh
97
decision
needs
##iation
##13
polymerase
extrem
explore
##ocamp
##isation
marrow
occl
potent
hepatitis
until
enrol
##ophys
87
heat
europ
pal
79
cv
offer
pathological
##acchar
##apping
safe
signs
##imen
subt
compl
94
phenomen
##flu
signals
manifest
##gramm
illness
variability
##icles
predominant
programs
##used
cav
nod
nucleus
##ral
##pati
descrip
physicians
##ring
tc
##inate
depart
employed
compreh
poll
observations
completely
assign
aud
nh
endoscop
biomark
nursing
final
excess
oxidation
eyes
indicates
trauma
89
agreement
##oration
##ucid
media
experienced
deep
veloc
clinic
excell
probably
costs
donor
construc
##rophy
inst
##phen
recommended
##bal
polic
make
pediatric
##clerosis
##let
divers
bu
##truct
##aptic
hippocamp
technology
neph
amb
recurrent
europe
pet
orient
spectrom
fibrob
##rs
bmi
occup
genomic
preoperative
estimate
compr
h2
arch
assum
##azole
middle
morphology
targets
understand
polyp
protection
perception
##ologous
##erexp
##osynth
minutes
##ompan
##orter
fully
organization
div
##ialysis
apparent
find
operative
hg
metastasis
exce
susceptibility
##allel
what
##ulatory
stabil
accompan
tolerance
presentation
protective
onc
dogs
families
dental
endogenous
conver
noted
fusion
pan
##ylated
##thritis
analysed
np
towards
feas
location
university
earl
##ortun
adhesion
enti
##eds
carri
turn
overexp
coord
##tract
emotion
morphological
minor
motion
blot
pretre
contained
defic
excellent
##olds
##20
providing
##teen
##ework
##eling
close
preparation
##way
##osomal
jap
##by
computer
issues
neutral
lapa
##osal
fa
rich
81
distal
randomly
neoplas
##ervation
cytoplas
domains
##ester
volun
transf
afric
actin
defects
##ember
ischemia
bleeding
##tp
##erence
##group
reconstruction
##oked
framework
sectional
movement
##ercul
progress
ros
##iaz
independ
prolonged
csf
unl
##ged
american
##osterone
nons
##oline
stimuli
elucid
ovarian
lc
haz
##ives
microgram
extensive
thym
##cents
intact
benefits
##ancies
ben
none
caro
prem
ethanol
developmental
existing
intermediate
camp
##iform
fund
ather
##ict
milk
distance
##ocar
##ata
neck
##itively
theore
programm
delayed
deliver
satisf
necrosis
venous
##eli
##bl
##18
aug
word
ischemic
oil
enhance
fif
##fa
whose
schiz
band
database
seems
az
sat
adolescents
feeding
##apse
emergency
##ician
##olysis
injuries
parallel
below
##ophag
typical
cruc
logistic
smaller
##asia
##ibly
choice
suitable
immunos
address
except
soluble
immuno
practic
##atment
##thers
synthetic
infarction
##ione
element
possibility
##aline
##imer
nam
mn
cancers
medication
##14
transient
fracture
nervous
routine
bilateral
put
##estions
au
lang
accel
har
nanoparticles
##itoneal
showing
labeled
targeted
exchange
##itals
regen
correct
##ochemistry
curve
la
princip
##ream
service
reliable
##organ
##thal
hazard
maximal
##eg
serious
mill
hund
diffusion
clon
hundred
added
propose
growing
##esh
preven
ker
attach
##phosph
varied
demographic
observation
sequencing
3d
colum
##ococcus
##ophage
working
bladder
lv
##anth
gradi
fm
##cles
tun
egf
pv
##lycer
regional
cytokines
congen
cox
venti
gain
igf
perme
##gans
500
mp
##opic
coupled
precurs
uns
lps
nurses
##ump
channels
vag
concluded
cyp
others
##ra
genotype
radio
comparing
##oglobin
primarily
hf
##igen
autom
cortic
break
oct
##iral
##oxyl
91
pf
smo
dele
uter
ions
achieve
##ocation
markedly
dc
parents
skill
##taining
##thern
psychological
relax
##tenance
interv
fibrosis
ak
ip
run
fall
ens
trigg
zn
institution
therapies
maintenance
ring
antigens
thre
##anial
minimal
neutroph
tgf
phyl
amounts
conjug
additionally
##actic
nucleotide
##rophic
tubercul
epile
recognized
##idal
commerc
subject
native
blind
dors
cut
ranged
shift
197
##aria
jan
tryp
##care
##rich
##osomes
progressive
diversity
##jection
metastatic
##leuk
##usc
proximal
##angl
classified
japan
industr
##inking
##stream
knee
bran
angle
infil
subgroup
injected
##ycin
retinal
##urg
tit
##ivalent
##15
benign
periods
mh
##rocytes
thermal
port
maintained
bov
uncle
smooth
hospitals
t2
antagonist
international
asc
electronic
seiz
3h
shape
antioxidant
solutions
eti
deficient
irradiation
musc
node
threshold
##genic
complication
##cal
subtyp
partially
invers
##tingu
communication
fiber
##itus
longitud
replacement
behaviors
contain
##urine
substantial
earlier
##orage
caps
failed
probe
never
##ament
occurring
monocl
algorithm
catheter
##erent
##ested
variations
unclear
kda
##ili
localized
spectra
##entical
##cher
reverse
##urys
scanning
describes
microg
vac
delta
implementation
perceived
tools
closely
exhibit
velocity
dex
subunit
##ophren
ru
nitrogen
tl
##atib
extended
sufficient
latter
subsequently
devices
cn
intervals
depth
shock
arm
##ias
hla
##ogens
united
enrich
distingu
metabolites
gc
neonatal
regular
enrolled
qualit
hydroly
interesting
schizophren
seem
influenced
prediction
hydroph
chinese
##letion
##apl
analyze
sensory
separation
tm
independently
##we
fab
##hythm
localization
hd
pathology
##mitted
adjust
ig
spin
identical
focused
estimates
beg
hemorrh
disturb
excre
##argeting
counter
##itiz
rise
opportun
healthcare
matter
amyl
surge
##17
atrial
##ophageal
obtain
##tics
bul
represents
acquired
entire
positively
intensive
##avage
##aries
lam
vein
##uit
##ches
dominant
##rous
##ises
marg
##ontin
clearly
targeting
skeletal
emp
decreases
##try
p2
incubation
bis
detailed
suppression
extracted
persons
height
invasion
derivatives
inactiv
comprehensive
cam
interleuk
##rium
thi
##yle
degen
largely
verte
##eck
hab
initiation
discharge
illustr
cytos
cover
perfusion
magnitude
sampling
extracts
encoding
contraction
##tious
fibers
direction
monoclonal
sten
##back
##ozyg
atom
pros
competi
enhancement
records
correlations
improving
january
##intestinal
derm
##elf
promote
seas
risks
psychiatric
fixed
presenting
childhood
crystall
aa
department
crystal
pneumonia
gastrointestinal
error
##19
##irect
slightly
sinus
##ocrine
thirty
spectrometry
artif
moth
variants
##eptide
gab
thorac
challenges
pregnant
equal
measuring
emission
suppress
egg
beneficial
south
##east
hcv
fractures
done
allowed
interleukin
storage
cytokine
gland
circum
##anine
##ellar
300
dependence
inclusion
tyros
ane
reason
characterization
producing
dispers
neurological
##aft
crucial
plan
##ohy
##ements
silic
face
refr
##ways
06
##oside
##read
##opa
perc
numerous
goal
effectively
noise
surfaces
reh
##olec
longitudinal
expressing
adequate
workers
ethyl
opi
predictors
balance
healing
##factory
glutam
contrac
understood
explain
cluster
##oman
##ocarcin
vessels
nk
##elled
##atid
diverse
indirect
presents
250
##queous
modification
muscles
limb
chick
tex
example
remaining
##athy
meta
parent
newly
possess
##beta
py
highlight
date
##oa
ldl
died
stimulus
allele
lob
##ike
lipoprotein
wors
##isa
ranging
exer
airway
vegf
substit
supported
theoretical
nitr
practices
aneurys
questions
aqueous
arth
tail
wr
##rotein
p53
##acer
ast
neither
nmr
rhe
##rec
histopath
reper
dos
pel
strept
tuberculosis
kill
bc
##enchym
elic
summar
##otomy
metastases
hex
##itted
max
accompanied
coefficient
validated
aspir
##bc
obese
##ichia
albumin
networks
saline
decline
displayed
sustained
bovine
transduc
whom
##acin
hour
##icin
##isions
##ovirus
recommendations
kinetics
##rog
cd8
suppressed
organisms
gold
##uting
leukemia
dy
corne
gm
##ensions
##alpha
admission
##a1
transcriptional
ple
##oin
determining
granul
micrograms
##certain
polymorphism
##ades
immunore
ts
simultaneously
economic
##kin
amplitude
##ires
vector
##transfer
pulse
introduced
once
robust
persistent
##rief
##atase
residual
transcript
explored
dopamine
organs
##ologists
assigned
contains
##dehy
μm
aging
discussion
##part
##dm
particle
systolic
taking
spread
teach
##lim
##ners
mmp
##itory
controlling
consequences
mothers
##ifications
atheros
younger
arteries
##ipl
swit
##patient
considerable
##anding
conversion
coupling
##cribed
phenyl
consisted
frequencies
termin
lymphoma
acceler
mutants
mv
diast
engine
##ows
valve
##sin
##ycl
##itant
congenital
##ilateral
output
appearance
mis
thought
tes
##operatively
##okinetic
substrates
integrated
affecting
impl
investigations
directed
chest
120
antimic
defect
salt
capable
green
gir
hm
##illin
vul
poorly
antimicrob
personal
fill
colorectal
ket
##rose
possibly
speed
##ulum
ni
langu
resources
##ina
##be
pool
delay
limitations
##ectious
##ensin
##fr
volunte
##ton
##enes
return
axis
facilitate
mammalian
replication
thin
ethn
functioning
mand
depending
reflect
favor
##oglyc
documented
##eless
##omycin
##udes
##otypic
attemp
##urally
count
clar
dehydro
kapp
pretreatment
reproductive
nad
emotional
125
wt
##ush
called
##np
##mediately
##xt
2000
##ocardi
volt
clearance
persp
demonstrates
pharmacological
antibiotics
elisa
black
##ban
##osens
##oe
microbial
##uvant
##ecal
lar
graph
rehabil
electrical
circulating
escher
##enia
immediately
mineral
dual
##uctive
autoimmun
fibr
t1
bow
escherichia
bat
amp
separate
fresh
lh
ib
influenz
agonist
##wide
sections
move
##oplast
pack
recording
cod
07
rod
##bor
##oved
cd3
##bar
rein
radiotherapy
hair
150
affects
explained
efforts
characterize
nasal
retention
##illus
##unding
##oic
rp
validity
reliability
original
gangl
substance
varying
##plasia
sarc
##iciently
hypoxia
expans
infectious
placed
transformation
ck
m2
phospholip
inoc
fluorescent
dend
fractions
creatin
cul
lowest
satisfaction
##get
buff
hpv
initially
##otropic
adsorption
staff
settings
distr
conserved
modulation
implantation
carotid
methodology
##exp
brief
##oidal
charge
simulations
proph
##upp
insuff
##iveness
removed
fu
pairs
##ocomp
induces
attit
ground
adop
seed
react
##anged
plate
##izations
feature
##cephal
gradient
##avy
probability
simulation
reactivity
hcc
schizophrenia
scat
##oblast
glomer
concern
gon
##ads
availability
##gs
serve
08
repeat
##avel
cytoch
mim
gi
qualitative
retro
##oresis
##treated
reached
identifying
ulcer
arthritis
estrogen
infr
peroxid
puls
burden
junction
upreg
cyst
##osity
##acet
hybridization
coc
tyrosine
subjected
##ophosph
##axis
##itin
murine
minimum
vaccination
occlusion
##ze
mature
knock
duct
disability
jun
dp
cyclic
##b1
mixture
words
plastic
glycop
restricted
suic
yeast
receive
##uria
cdna
##electr
comput
coding
echocardi
centers
casp
concerning
fragments
##aphyl
adherence
##ocytic
equivalent
planning
deaths
language
decl
rank
##cap
##insic
unf
proved
##aper
spr
400
lt
zinc
nearly
rehabilitation
eb
compart
lep
##ostasis
column
##hg
advances
changed
actions
temperatures
regulate
users
hearing
heavy
isolation
tax
barrier
##acl
##atically
advantages
similarly
sf
deletion
gap
biomarkers
attenuated
##acent
pathogen
includes
##entia
##omet
##sa
2010
display
physician
policy
urban
woman
pelv
##opo
european
assessing
practical
steps
cytotoxic
concom
pure
embryos
admitted
catalytic
belong
fibrin
ce
summary
involves
tp
##pass
##ware
antimicrobial
skills
##usive
##usal
##accharide
parameter
biosynth
dip
rating
gaba
thereby
methylation
collection
##forms
ligands
walk
express
##25
epithelium
stay
constructed
##dehyde
phenomenon
issue
cycles
##illance
stenosis
viability
tube
modeling
rar
manip
draw
bile
pathophys
composite
scientif
phases
scan
fibroblasts
cartil
##co
infant
concomitant
prevented
##err
##wh
##isp
prophyl
released
ages
leaf
##anded
sensor
fixation
medial
bias
##olin
treating
accoun
endoscopic
discre
nodes
##wise
##oscopy
trim
standardized
sera
variance
composed
##itol
monitored
austr
evoked
depressive
untreated
femoral
symptomatic
dementia
mb
shorter
absol
surveillance
##nt
bin
##time
pharmacokinetic
antis
ba
##ilities
implicated
##ohydr
surviv
p3
transpor
##omers
##40
sulfate
advantage
stere
##issions
dry
##onas
reporting
immediate
saliv
fields
##ash
supr
deposition
##aemia
consisting
segments
retrospectively
overexpression
sple
glycos
polymorphisms
variant
trunc
mi
distributed
forming
nico
si
melanoma
gli
##ache
analges
##path
##acial
##transferase
viruses
dissoci
attributed
bowel
instrument
db
blocked
rheum
##iologic
suspected
##inning
##idin
foot
inters
cg
iod
improvements
μg
give
glutath
remark
##iance
dorsal
china
utilization
generate
room
driven
north
spectral
##chron
deform
flav
differentiated
sti
metall
pitu
gover
##teine
comparative
sets
zone
excretion
experiences
sir
##oon
dimin
##ril
##abilities
lens
tasks
adjacent
expansion
assisted
aggregation
own
nitric
aid
assembly
depends
mell
volunteers
ing
nt
locus
rabbit
asymm
overl
applic
##ensus
pigs
stat
progen
interface
dram
multid
scientific
ld
relevance
##23
##mentation
##pler
increasingly
sedim
##otr
dehydrogen
fol
negatively
libr
##ogram
undert
##pan
predominantly
influenza
##omical
##angi
rout
##geal
limits
rural
anesthesia
adenocarcin
09
##ilib
restriction
separated
glutathione
apoptotic
referred
became
breath
socio
##term
pu
parad
operating
traits
glutamate
contamin
next
clusters
##ilibrium
hard
take
elevation
embryonic
##plc
##des
tg
nc
biof
susceptible
immob
sv
nuclei
extremely
donors
forty
drinking
##ury
tur
compet
detectable
##mp
candidate
commercial
pic
pituitary
##ulus
immunity
evaluating
##lets
synaptic
interpretation
insertion
laparoscopic
bor
mmol
aids
autoimmune
miss
check
errors
steroid
substitution
##ks
tumours
cx
##eting
2d
cum
cytotoxicity
prosth
extension
wa
quant
recruited
waste
electrophoresis
cataly
loading
potentials
facial
recipients
prelim
osc
curves
##ips
valuable
diastolic
acetate
bypass
##acting
nr
putative
##gar
relaxation
recovered
easily
cytochrome
##water
##57
ub
sho
anomal
absolute
pil
episodes
expect
##aryngeal
multic
mucosa
analytical
bind
proton
bd
angiot
cry
professional
threat
tob
counts
obstruction
gram
african
decreasing
xen
pathogens
vessel
twice
glycoprotein
calculations
transgenic
abuse
subcutaneous
##agulation
lymphocyte
adrenal
house
veh
hdl
always
continued
##ging
feedback
##ocytosis
grown
##hs
articles
##ruption
##atif
causing
uncertain
maintain
mostly
##hydr
ect
encoun
##urance
mellitus
hence
##bre
##era
##oints
bac
regulating
synthase
biology
angiotensin
reasons
2009
preparations
cavity
cartilage
spleen
##acco
december
chains
pron
emphas
acad
adaptation
define
film
##veolar
##yte
live
incorporation
##tor
##aken
integration
art
ju
interviews
co2
##ensis
fing
mitochondria
##abs
typically
##ptomatic
deficits
nutrition
fewer
clinicians
distinguish
correspond
reduces
penetr
cla
estr
considering
heterogeneity
greatly
utility
regimen
##isition
##rup
solvent
track
phylogenetic
1000
2012
angiography
gs
layers
reperfusion
##onate
categories
emerging
##fp
##igible
preliminary
cond
ester
quin
existence
indices
##ayer
predictor
scal
aure
##opol
reviews
residents
##atig
fever
excit
##ifying
adjustment
smokers
hydr
tobacco
copper
hypothal
adjuvant
cold
acquisition
##60
decomp
##ematic
correction
blue
##igm
viol
communities
sept
pert
##oxin
epileps
list
strom
retic
##1a
oscill
##mental
fatig
buil
veget
##gi
compens
utilized
quantum
supplementation
extra
precursor
bearing
injections
##etal
orb
fabric
interferon
##dp
##alities
adenosine
##phenyl
maturation
cytoplasmic
sup
definition
mer
immunosupp
align
caspase
cns
##gal
plasmid
displac
software
items
contents
identi
hypothesized
voltage
##assium
clim
unus
focal
##fe
2011
pall
##draw
cleavage
nonc
inferior
rc
outs
##vascular
project
orientation
##amous
e2
withdraw
dehydrogenase
##amental
##ley
serot
toxin
carbohydr
potassium
true
asymptomatic
classical
arom
mening
loci
intrinsic
motiv
beam
conduct
##ophen
aureus
nutritional
ventilation
insight
ace
##adiol
jud
eosin
immunohistochemistry
##omat
stratif
##yc
influences
park
distress
gall
tib
yielded
teeth
hsp
loop
##ready
dialysis
##mark
##atidyl
already
config
perf
##weight
chloride
##amination
##ears
aggressive
genotypes
mucosal
requirements
unch
requiring
interc
mach
##70
##uments
##dna
yo
##chem
regeneration
pyl
cutaneous
auditory
mobility
array
##min
##idase
bcl
exogenous
##ister
pump
fc
scales
##ilization
ln
classes
##22
##oden
adaptive
dihydro
aort
predicting
input
amyloid
motif
validation
coch
2008
amph
2013
mapping
##ux
##ylate
differed
##enchymal
##choline
transfusion
bey
ah
staphyl
options
epilepsy
estimation
##uch
enzymatic
##phrine
evident
beyond
precip
gave
participation
relapse
neurot
pent
##ipp
steady
educational
carcinomas
trends
mu
rabbits
sched
dh
brom
sul
##ette
##rovers
inner
hemorrhage
##oyl
herein
bip
insights
arab
phyt
##30
protocols
##olecular
lipids
inhal
##ief
##ulative
##eses
examinations
reversed
##iness
##zyme
cirrh
barriers
substances
abstract
scaff
eg
##oplasty
movements
remission
undertaken
fundamental
hz
permeability
secret
interact
002
##max
remod
corneal
careful
lamin
rig
##fluores
salmon
worldwide
formal
mmhg
society
hemoglobin
pn
argin
vide
##ospor
parts
discovery
intram
trop
immunoglob
shr
seek
controvers
immunohistochemical
thoracic
medications
##areness
superf
macrophage
stent
overc
fatigue
correlate
hemodynamic
phosphatase
ocular
embol
##opathic
precise
##azol
##iction
##urated
positions
##edic
##rounding
electrode
fals
2014
lactate
regardless
2005
uterine
vesicles
careg
cation
inducing
heterogeneous
acting
principal
author
starting
glass
anth
practition
determin
ammon
delivered
implants
enab
frontal
##adily
epidemiological
deb
heparin
member
uniform
aberr
indicators
dt
simulated
mor
epit
awareness
cham
thal
allergic
thrombosis
war
offers
films
##ritic
comparisons
##umab
consensus
##ought
##emat
micr
pathogenic
inhibits
##point
bodies
surrounding
nar
squamous
biopsies
##mod
##aints
empir
prep
subunits
truncated
schem
cultiv
##ensities
2007
science
##arch
rational
lacking
hplc
##ime
homeostasis
concurr
peg
##ibration
p4
parental
fetus
environments
##tead
osteop
hapl
feasibility
itself
pelvic
rupt
substantially
traumatic
gestation
residue
spine
professionals
mast
annual
labeling
similarity
creatinine
providers
2006
technical
leaves
##nel
amplification
subjective
##avi
attack
cardiomy
hbv
etiology
##elihood
allowing
govern
testosterone
detecting
promoting
polys
##arrh
consistently
manifestations
##heimer
intrac
##tisol
combinations
abundance
alz
##aden
c3
attr
sought
virt
opioid
sizes
mono
##ota
weighted
quad
retri
##aceu
ram
operated
capillary
implemented
disapp
malaria
lp
modifications
##adian
##azine
hippocampus
##anti
dimethyl
##ionic
fasting
clones
##inson
instead
sepsis
uncom
gestational
concerns
artificial
placement
##mc
esophageal
##ounced
o2
##alc
##onuclear
initiated
team
fd
stom
resting
proven
supporting
##graph
photo
guided
##eded
hydroxyl
hypertensive
coverage
transcripts
version
alzheimer
005
identity
ones
2015
##epine
##oxic
gut
income
dimensions
occupational
##osome
##k1
nanos
outer
prevalent
percutaneous
depletion
likelihood
translation
anaesth
##ectors
land
preventing
hydrolysis
interestingly
circulation
rb
born
guide
chond
promin
peritoneal
compression
compliance
##otides
diffuse
##apped
fifty
eeg
##lin
option
challenging
colle
sympath
##ulties
supports
symm
equilibrium
idi
biofil
adenocarcinoma
accom
namely
contributes
##ypt
##icients
seizures
ubiqu
ras
digital
attitudes
antagonists
abundant
coefficients
##down
cann
leak
respondents
##opausal
virul
microscopic
researchers
insp
##oming
consists
created
aneurysm
raised
om
ot
extens
##itect
pronounced
deviation
atyp
ho
##ietic
lost
evolutionary
bot
quantification
recruit
unusual
##uron
hippocampal
##bi
nonin
arrest
false
##uity
##essions
girls
##otoxin
structured
yields
pren
speech
beginning
##ophilic
leuc
ips
ent
databases
tt
##load
lumbar
anatomical
ile
limiting
bic
biosynthesis
##uous
absent
collab
inactivation
cig
atpase
##ocys
triglycer
isot
ablation
eps
indications
doppler
resolved
vaginal
##ued
instit
##entricular
difficulties
tooth
reading
abol
##eps
parasite
uses
whe
fungal
plaque
rheumat
##astom
##ry
exists
gd
##lip
##ameth
japanese
ball
##nia
standards
participated
##ba
auc
phenotypes
constitu
homogene
survivors
ald
exact
efflu
atherosclerosis
trip
°c
##mented
##orous
##ilic
##90
subset
rv
##going
fore
osm
changing
##titis
complicated
malignancy
quantified
cortisol
wk
mess
##27
##ibular
perspective
brid
##ana
postn
tlr
rarely
unchanged
##80
screened
complexity
chi
gn
galact
unilateral
stimulating
leth
flux
##lastic
##assay
fist
wash
egfr
##pread
cumulative
coated
##ss
interference
bed
ath
##iasis
northern
li
alleles
grafts
##ozygous
wides
vehicle
potenti
##onography
selectivity
habit
widespread
ank
ways
monol
##uscular
##rocyte
vic
diarrh
refract
vertebr
start
intes
portion
german
absorb
dich
favorable
##ilized
situation
decisions
mother
hormones
representative
elimination
entry
ask
##omonas
##iae
hospitalization
attachment
##inea
visits
resource
finger
feasible
##anted
neigh
decades
2004
optimized
carriers
kb
arginine
##acranial
synerg
actual
hydrophobic
enriched
##opoietic
dosage
inhibiting
perman
discontin
##ni
princi
conserv
##tures
conflic
academic
##ocortic
parkinson
sound
retriev
faster
psychos
##enter
fine
crp
experimentally
degeneration
sud
pylori
semi
technologies
ongoing
discrimination
questionnaires
mann
##urity
flap
construct
makes
##uctase
platelets
obst
narrow
probes
disruption
hors
protease
excision
represented
principles
maintaining
##ded
copd
##unt
ultim
spher
volumes
##uctu
involve
spermat
dn
diets
##ifer
alkaline
dro
tension
phosphatidyl
preterm
##ws
adolescent
fluctu
##ulose
infiltration
greatest
infrared
##eptive
excluded
forces
elicited
vital
##ocular
cystic
2016
incubated
embryo
scans
onto
exception
##odil
cigar
see
teaching
##elin
##osyl
partners
trained
##ote
depos
prospectively
##ardi
edema
computational
##dep
timing
locations
consequently
##p1
observational
##mt
##ascul
vulner
drain
phag
distributions
##esterone
emerged
##chemical
vaccines
eating
adipose
efficiently
plane
pts
histologic
accurately
cytometry
equation
sham
##fold
lith
solub
consequence
rotation
##oxygen
##opes
prescrip
##vents
progesterone
attempt
precision
diagnoses
closure
serotonin
##romy
optic
microscop
translocation
univers
akt
determinants
contamination
hor
oxidase
reversible
categor
##agul
phenotypic
##vas
rejection
atm
intraoperative
##holds
cyan
gonad
performing
responsive
preferred
indicator
cloned
larv
##28
gy
visible
alveolar
elucidate
law
metabolite
subtypes
agonists
##atile
modern
generalized
carrier
warr
##ometer
microc
explan
linkage
##yster
splic
supply
downreg
dissection
ly
genus
rf
colony
assessments
obvious
diffr
anastom
library
synchron
##bb
combining
readily
text
closed
demonstrating
effort
postm
##eed
##ometrial
##oded
reductions
##zing
morphine
##rene
needle
dark
ionic
##itic
##amycin
##ders
bulk
##21
superoxide
description
##26
acceptable
regimens
confer
aver
##aster
outside
million
nin
stiff
mom
##tice
carboxyl
hol
sequential
reflex
tab
sclerosis
km
consideration
representing
mos
former
panel
##rotic
ans
accep
encour
hyd
##ah
##ani
##rd
antit
##itting
uk
just
selectively
studying
##enol
chromosomal
trach
architect
quantify
complementary
postnatal
inher
##iph
modes
occas
outpatient
vision
downstream
incorporated
chromosomes
##24
##ocr
##ocellular
follows
atypical
aqu
estradiol
fibrill
mhc
##agland
##inf
##matic
deter
reveals
surgeons
##itization
##born
##avelength
dd
2003
##quin
couns
braz
improves
ensure
##2a
filtration
expressions
##ograft
immunoglobulin
addressed
##ieved
disappear
ls
ze
square
##tes
perfor
s1
corrected
diverg
##related
dox
race
dye
suffering
##day
neutrophils
##°c
prominent
largest
shared
encephal
boys
refractory
##erin
##lam
tag
immunological
conformation
epidermal
route
sb
ger
##mia
##ato
glycer
datas
stronger
##odef
scattering
suicide
sessions
stop
##ret
bonds
ke
##rown
intestine
reinfor
##infl
enable
sediment
priv
ige
sheep
powerful
subcl
examples
embed
##estive
premature
angiogenesis
recruitment
##carb
##atible
homologous
stained
nos
##ison
##iar
##theless
produces
nevertheless
wet
extend
negl
##ocon
withdrawal
respective
mycobacter
enhancing
correlates
bab
repeti
guinea
##tors
2002
##break
drop
immunofluores
##osyst
rectal
pes
considerably
operations
somatic
microarr
carbohydrate
anemia
##enari
offsp
youth
proliferative
endocrine
immunodef
##au
modulate
antico
tolerated
resemb
003
organism
intersti
passive
##cine
secreted
nurse
echocardiography
sou
##uly
##ophyl
##vel
object
intracranial
integrity
corticoster
##anned
prostagland
##omorph
harv
##29
dendritic
portal
qt
histopathological
##amus
dic
proportional
presum
pharmaceu
uc
tor
dw
encoded
tn
gla
vertical
oa
deterior
obstructive
shaped
##electric
formulation
viable
screen
comorbid
##iary
um
differentially
##omotor
##ticular
##ou
diminished
motility
nps
tf
##aving
blast
wind
postoperatively
radiograph
consult
dyst
##oor
commit
easy
noc
preference
wavelength
offspring
##ectom
outbreak
kd
##opl
transduction
fatal
fertil
southern
##ophila
engineering
nmol
##romes
blockade
sixty
##ivariate
dissociation
kappa
##65
incom
neutrophil
instability
##platin
enl
exhibits
bes
##nea
june
cov
bands
cirrhosis
remodeling
activator
##ided
##adic
chromatin
terti
2001
situations
reag
##arp
##iplinary
##iol
lungs
##ada
##embr
electroc
accounted
infiltr
platform
rice
sympathetic
buffer
aorta
brazil
depr
##isph
responded
ham
##angement
pkc
worse
scenari
competitive
preventive
emphasis
meaning
pathologic
walking
hepatocytes
transformed
neuros
##otes
permanent
ars
tree
nutrient
cocaine
derivative
##ococcal
##encephal
transfected
##ephal
##ordance
##omeric
tertiary
lac
##orbent
promoted
osteopor
hypers
##ulates
radiological
inos
##xy
dissem
country
histor
inside
managed
centre
roots
##inflamm
protect
shell
cisplatin
width
overview
obl
comprom
doub
##avirus
deficit
mirnas
formula
hl
igm
psychosocial
spor
shear
personality
qol
surfact
##empor
keratin
monocytes
trp
destr
duoden
canal
reductase
##usively
incomplet
automated
participate
prenatal
comprised
elastic
anaer
modalities
apparently
coordination
online
nonline
programme
propag
##ora
gastr
sca
##mg
focusing
glands
acidic
##flow
implanted
tach
chor
overweight
malform
acts
##2o
ft
##pro
metals
season
##alling
##ograms
stimulate
##arged
##yd
excitation
##asone
##acerb
##atum
somat
contributed
harm
exacerb
##uits
subgroups
##times
##rane
atoms
border
##atibility
##off
glomerular
larvae
visit
web
leptin
wat
topical
aromatic
numerical
incident
sen
depressed
arrhythm
##phthal
discovered
##plicit
satisfactory
##ert
mutagen
normally
excessive
##actin
endometrial
fgf
blocking
redox
applying
ecological
dermat
genetically
intrav
cytoplasm
decade
##acycl
diffraction
td
merc
lr
##oxacin
immunization
mesenchymal
pressures
chamber
pathophysiology
nonlinear
minute
manu
abolished
pow
pilot
biliary
horiz
##osus
intraper
pregnancies
lobe
vacu
adapted
item
mobile
urea
yr
##athyroid
gsh
##clc
##ubation
retained
##eptides
replic
##ulmonary
empirical
nd
accepted
sea
atrophy
##inter
math
carrying
patch
quick
importantly
veter
industry
ventral
fruit
span
idiopathic
manufact
innov
##ancer
isolate
evid
rearr
180
encountered
lifest
cysteine
pancreas
highlights
paired
vascul
tight
nicotine
trich
dyn
candidates
recombination
subtype
secretory
##anal
overcome
##ai
endomet
burn
##affected
templ
interstitial
##ica
practitioners
##phosphate
oocytes
atomic
capture
contributing
potency
assumption
##ortions
biomass
prolifer
critically
optimization
##ropl
endothelium
surveys
staphylococcus
ideal
industrial
##adequ
loaded
##orec
hos
##oustic
binds
lev
inadequ
##asic
apical
##agnetic
hams
started
1990
##rod
##ardia
cultural
##akes
radiographic
110
stromal
rheumatoid
##oli
##iration
drainage
iga
tended
alt
stret
stomach
elong
scar
activating
unaffected
mitral
##uncture
enables
##roz
responsiveness
##ero
nano
create
##odon
##cn
pep
serial
difficulty
histamine
microt
let
contral
psa
differentiate
hypertrophy
catech
##inating
manual
lute
category
##ians
adjusting
##osan
inducible
##osures
euk
sib
mood
##ools
glauc
##ocin
spp
perceptions
concurrent
nerves
salmonella
adduc
sugar
fear
trait
regulates
attempts
radial
statistics
alteration
hu
clarify
video
immunodeficiency
processed
snps
##vasive
retard
##oar
isoforms
microbi
modulated
protected
ethnic
eukary
##vis
student
conformational
predisp
coating
##rox
t3
unexp
biomarker
ki
##rt
##nat
amel
pge
latency
demand
sds
utilizing
dimer
perm
##rile
tendon
traff
posts
continue
immunoreactivity
march
foods
lin
malignancies
##isciplinary
filter
mediate
substituted
icu
newborn
contralateral
predictions
##ometh
cattle
weekly
perturb
exon
##oderm
##opyr
algorithms
acuity
seizure
aerobic
sensing
hemisph
synergistic
hypot
##agic
##avail
rupture
adp
pin
##ci
rrna
cats
##plex
city
##cepts
stiffness
blocks
600
axial
bipolar
intell
quar
opposite
##lings
histology
believed
##arcoma
microorgan
neuron
##fort
eligible
displacement
learn
asked
##entis
##iable
##ropathy
night
rhythm
antidep
##tructure
registered
digestion
scheme
turnover
unlike
beh
unrelated
ppm
prophylaxis
bf
mab
fourth
guidance
##cious
systematically
virulence
constants
##hd
disturbances
anthrop
glucocortic
caud
##gia
bmd
sun
tau
wheat
##49
fs
exclusively
optimum
signalling
##orp
austral
neurom
tand
mononuclear
ging
ti
exposures
soy
##asty
medull
xyl
mum
casc
atmosph
coagulation
##lands
prescribed
facilities
tap
sap
compartment
chemistry
activate
1999
cows
gradually
fasc
##43
descriptive
jour
explo
tendency
immunofluorescence
flexible
esophag
peric
##elves
##nis
je
microgl
citr
adrenergic
mammary
hematopoietic
##elve
##ees
##ulder
rn
##opsis
twelve
reflected
fitness
androgen
transporter
##mitt
declined
static
##sych
kore
fig
regulator
goals
##economic
bay
peroxidase
climate
disrup
examining
salivary
ef
##umor
##pecific
##56
tandem
antidepress
tetra
hepatocellular
##osen
uncommon
covered
neuropsych
opening
##eres
##lem
severely
oes
opportunities
expanded
bt
accelerated
impacts
sulph
porcine
africa
equally
antiv
mixtures
shoulder
embedded
answ
driving
fibrillation
##bil
headache
##iking
##pes
##iod
serine
conv
sudden
autophag
discusses
claim
helpful
distinc
autologous
ecg
irre
##odialysis
eosinophil
division
inverse
##apt
##enopausal
controversial
##ynaptic
marine
lifestyle
upd
returned
registration
##aments
##ptic
lineage
##inosa
sucrose
##chlor
##uation
##embrane
supplemented
##ception
##glyc
dros
electric
concepts
frame
saturation
##aint
syndromes
rated
dramatically
institute
ventricle
too
partly
chosen
superficial
##amethasone
genomes
adhd
july
##accharides
##ques
indication
##ariable
building
share
cvd
neurode
configuration
##ectable
circular
ophthal
##opolys
##imetry
##erge
neurodegen
gyn
vectors
birds
##idium
bif
ventil
financ
offered
bud
##gone
shifts
tac
property
restored
tip
c57
conven
homology
usefulness
investigating
usual
##tidine
transferred
contributions
surpr
quite
196
instruments
electrodes
chloro
##aste
lethal
modality
paradigm
epigen
aml
acr
suppressor
mov
alkal
construction
deoxy
plasticity
pit
swelling
attached
null
irradiated
tubular
chemok
undergone
distant
genotyp
##inflammatory
becomes
thems
pref
electrophys
box
##icking
themselves
familial
lifetime
##37
opportunity
##vs
##ocor
##astatin
innate
polypeptide
enanti
mask
##aceae
histone
psori
conduction
subm
##estim
##ocated
weights
sometimes
perin
muscular
requirement
conservative
analogue
raw
fell
ide
leukocyte
##ala
1998
mda
session
vin
004
strand
besides
silica
crc
brach
zero
vo
##omatous
round
physiology
rhin
effector
##rim
placental
papill
visc
purification
##omb
strict
eggs
lm
##uate
phe
perioperative
hyperplasia
socioeconomic
college
epidemic
clamp
bol
pca
pooled
forward
##ping
linking
a1
selen
recordings
sense
##rought
connected
extensively
amplified
drosophila
sick
injured
##aemic
hier
electrochemical
lowering
ia
urg
lup
stored
rub
registry
contaminated
##otoxicity
april
anatomy
homogeneous
hot
insufficient
##grade
##ploid
retina
competition
##ostatic
anion
##3a
##tives
neonates
mf
referral
orally
nodules
unlab
reporter
tens
iq
##viral
fibroblast
anaerobic
kidneys
eh
remarkable
ligament
biofilm
##idity
aspect
lag
##esium
preserved
a2
deal
cure
hierarch
harb
breathing
hormonal
microtub
gives
son
margin
peaks
aerug
precursors
homolog
##oplasmic
2017
alkyl
##gt
arteri
favour
##ocyan
microscope
farm
cysts
currents
placent
##ochrom
domes
catalyzed
traj
analogues
adapt
cess
##oradi
cef
##olone
dispar
polymers
##openia
##ologist
defense
encaps
aeruginosa
promotes
##activation
univariate
rect
vaccin
assumed
myeloid
neurotrans
mediators
english
hall
nacl
pore
silver
applicable
triggered
thrombin
schools
epidemiology
interp
naive
snp
luc
acyl
swe
##orecept
##ucted
kit
cement
waves
branch
functionally
architecture
naturally
##cp
expon
nond
cessation
##otal
surgeon
recall
anis
##antic
cues
gait
para
##cape
##ethylene
randomised
electroly
ckd
staging
osteoporosis
mirna
unexpected
sustain
pay
fos
##keletal
upregulated
##istar
append
ankle
abscess
purposes
##odal
bonding
microarray
examines
t4
prostaglandin
fungi
chicken
tric
spontaneously
phosphorylated
took
throughput
periodontal
meal
circumfer
coval
served
κb
wistar
nitrate
##ipine
cin
##keys
hospitalized
exclusion
gross
comprising
follicular
140
testicular
searched
##ylamide
crystals
insurance
gb
##hion
focuses
inadequate
domestic
equations
molar
graphene
glaucoma
##oprop
##eleton
illustrate
quantitatively
bs
kind
##io2
##jun
scr
pharmaceutical
fox
##itized
##inase
dense
olfactory
##iciencies
##ulsion
clean
locally
mathematic
cro
indeed
emergence
mw
prescription
van
rough
verified
maps
tcr
intim
erythrocytes
ranges
inactive
caregivers
##aminergic
geometry
equip
chel
##elles
ala
nl
pseudomonas
specimen
cerebellar
elucidated
lymphoid
cmv
preservation
nmda
surprising
anomalies
##irc
intense
profound
##omics
entit
##ional
dexamethasone
##etized
acetylcholine
ultrasonography
##ague
##gu
1997
incomplete
approved
##clerotic
##rozen
achieving
separately
analyzing
intermitt
fashion
kinases
resin
##enin
r2
enhances
dosing
##acterial
##ino
##oprot
##oxygenase
seeking
##ober
mammals
##oblasts
anch
hearts
edge
acoustic
##35
vasodil
aspart
aspirin
details
reflux
anc
histologically
mrnas
##ming
##ergies
##ighting
##esize
violence
dilution
epigenetic
ultimately
capability
meeting
juven
coinc
accumulated
ic50
bund
ptsd
catechol
##cale
thresholds
fri
why
vp
gtp
p450
neoplastic
##vant
expert
partner
ecosyst
##olarization
oligonucle
coping
tris
colonic
macro
capt
agric
communic
##otub
##ofib
parasites
##antib
front
balloon
antitumor
relaps
decay
p38
invent
crude
##ellite
##opulmonary
jus
##idae
pancreatitis
frozen
clone
rnas
completion
sar
trace
neo
hind
agricult
pneumoniae
calculation
micror
sacr
##inergic
##aking
enough
enrichment
matching
##inescence
connectivity
vap
##anium
additive
##roplasty
fertility
policies
unst
evol
##±0
crop
circadian
polarization
d1
ureter
steroids
##oides
restoration
mscs
conscious
##lot
methanol
transfection
helix
##ivation
fsh
1995
h2o2
afford
hous
supernat
hyster
bioavail
##arum
conditioned
microorganisms
pollution
cohorts
nitro
statin
conjugated
labelled
##mal
blotting
##ger
vertebral
c57bl
upstream
mechanistic
130
generating
progenitor
private
14c
##atonin
alignment
##oscopic
stratified
##atch
september
moderately
relief
##ographical
noninvasive
continuously
anticancer
clinics
threatening
formulations
##thromb
colitis
fistula
hydrog
verbal
alle
reticulum
tk
tone
translational
breeding
persistence
look
promotion
##oric
##f1
##ionine
##iton
transmembrane
otherwise
principle
##ophore
##ped
glial
viscer
asian
che
bronchial
station
nsclc
##va
##tism
septic
scoring
october
conservation
crypt
##ubicin
scaven
c2
employing
anatomic
sand
mapk
chemicals
adopted
##afts
neurologic
##3k
##utable
##rontal
ineff
d2
mex
##key
herpes
opin
ont
seventy
mandibular
##orted
##adren
cigarette
behavioural
dent
ionization
minimally
calibration
copy
##axel
1996
informed
##ulator
##t3
medline
australia
palli
usage
interpreted
laborator
market
routin
##requ
cool
canine
##ulos
transmitted
renin
administr
pubmed
##onom
##rex
phenomena
lasting
l1
ejection
aspiration
subp
resc
outl
endemic
popular
horizontal
catar
river
warm
charged
axons
stabilization
attractive
surfactant
herb
##otoxic
kappab
ecm
##olate
influencing
ganglion
discrep
ratings
alanine
cyclo
##obut
flat
df
##urgical
##olym
photon
simpl
tracking
perox
discrete
##amines
inpatient
trypt
cytosolic
##34
arising
##mut
orbital
reaching
picture
##factor
antiviral
yl
neuropath
sig
recons
immature
entr
coa
rg
apply
##asm
melatonin
manipulation
sent
epiderm
tibial
mouth
antif
fp
asymmetric
sirna
tet
victim
neurob
dispersion
meet
antibacterial
insufficiency
enabled
penic
lupus
provision
moment
##ounding
##elect
notably
##pert
chd
1h
neuropathy
va
accompl
ole
reserv
##hl
devi
causal
inoculated
adsorb
meat
hypothalamic
##opos
cyclin
pip
##puts
observe
lipopolys
efflux
designated
##igation
##mm
105
nb
ccr
##esare
suspension
laboratories
##graphy
multivariable
friend
lesser
amelior
pestic
##ffe
triple
ebv
gro
tsh
distric
episode
aph
objects
fn
raman
select
oriented
##ostatin
magnesium
rd
gyr
##osel
##ogenes
##tia
user
modest
definitive
evaluations
recipient
osteoar
normalized
##orative
erk
immunoreactive
##organic
##unk
rule
latent
##osarcoma
palliative
assayed
iu
cellulose
anticip
india
financial
imped
radicals
oxidized
sequenced
##letes
inversely
giving
cab
synov
scler
representation
revision
diarrhea
nal
hh
thyro
sg
photosynth
pleural
novo
pseudo
desc
##esarean
underl
##patients
incons
##arct
reproducibility
astrocytes
diaph
attributable
criterion
dysplasia
densities
guan
attenuation
forest
##aturated
granules
##asts
##tra
peroxidation
pari
aggregates
gst
adding
owing
##recip
##cy
##rag
nation
##met
hsv
directions
##ayers
erg
extreme
calculate
standing
lamb
covari
incision
##epith
haemat
grafting
uncertainty
##t1
intermedi
micron
arise
##f2
##yrin
cfu
releasing
gad
monkeys
##icul
##ecs
intermittent
recognize
validate
plasmin
fetuses
powder
##ito
compatible
destruction
establishment
migraine
##iatal
transplanted
leukocytes
neoplasms
becoming
disturbance
foreign
code
immobilized
deprivation
g1
##static
avoidance
lumen
consistency
##ards
16s
grav
rac
cranial
##terase
nucleotides
hypoxic
hemodialysis
articular
dcs
##agement
sac
postpart
pigment
caffe
inserted
mathematical
striking
autonomic
incid
perinatal
conductance
converted
evolved
anesthetic
##tructural
contrary
unable
##enteric
fragmentation
cholec
kr
exert
postpartum
fecal
analgesia
##avir
arach
ambient
candida
##aly
##urable
##p3
##thral
deterioration
vibr
##otherapeutic
kerat
condens
aneurysms
upregulation
abilities
transitions
discl
losses
massive
##oblastoma
suffered
prove
universal
ethical
remarkably
mas
160
conjunction
amn
replaced
joints
bacillus
proce
##ogeneic
quantity
apprec
crani
shed
echo
##n1
marginal
##ensitivity
conditioning
seasonal
switch
sampled
erythrocyte
dial
believe
athletes
c1
abnormality
##uretic
##uck
constitute
##edical
alumin
cooper
##aryng
ome
##no
hosts
arc
parti
##g2
##ova
##points
arabid
sharp
fdg
inver
##panic
penetration
alcoholic
multim
modify
trem
##67
pharmacokinetics
##uric
csa
tbi
##but
inventory
din
radiographs
ligation
##enth
conceptual
correctly
lib
arabidopsis
cochle
drawn
lectin
spi
inorganic
##romycin
myocardium
##virus
historical
ded
microp
running
##oemb
dysp
lysine
thorough
##imb
cognition
describing
belonging
preclin
##usp
til
held
specialized
usa
striat
spectroscopic
##itors
knockdown
stra
flexion
masses
peer
autoantib
##olid
##omerase
filled
coil
expend
##zation
cannab
##anger
hif
immunob
mediating
polyc
proportions
wnt
ambulatory
catalyst
##uz
tyr
##bilical
##urnal
##floxacin
##plastic
avi
reward
equipment
##iliary
aspartate
developments
##antom
fibrinogen
##c1
unstable
ingestion
tam
##essive
elective
##r1
sy
gained
sarcoma
glu
##imus
glycine
preclinical
segreg
disulf
etc
mini
peroxide
splen
unp
##itated
##ares
envel
conversely
job
##luor
forced
facilitated
ovary
nephr
brown
phospholipid
eighty
##ifug
expendit
##gene
##qol
contractile
ih
giant
hbs
##pin
##ostomy
autophagy
cros
##olum
trigger
similarities
autops
swed
##p2
vestib
interacting
##sk
lithium
##rospinal
1994
resusc
neighb
scin
contacts
111
##lipid
reproducible
takes
##ellum
eleven
heme
1a
fel
commercially
subsets
terminus
##entan
inoculation
vc
clustering
august
attempted
bott
contractions
trypsin
courses
slower
106
fluids
name
visualization
essentially
sial
ai
mdr
colonization
visceral
soils
##enstr
##ozoa
aware
##after
800
testis
aberrant
hypotheses
capsule
acth
##bumin
incontin
##itability
fibres
radiol
##ibilities
noradren
prophylactic
introduce
##iefs
cholinergic
immunosuppressive
balb
sole
batter
bioavailability
poorer
inconsist
##ectomized
phosphorus
##atation
125i
rings
unlabelled
bh
constructs
receiver
resol
slope
institutions
carry
knockout
overlap
fair
lipopolysaccharide
cerebrospinal
methodological
asd
postmenopausal
facult
fluctuations
gnrh
reflects
immunosorbent
glycogen
advanc
doctors
450
##rupt
##imetric
##48
##uding
##ecan
leakage
##aldehyde
chim
smoke
routinely
varies
pulses
institutional
autosomal
precipitation
##95
revascular
transverse
1β
##ogenicity
##acing
subpop
##irable
##illi
jejun
h1
irrevers
beliefs
chromatographic
moiety
##hn
explicit
anten
defective
##oxif
modulating
##ony
##oblastic
##pc
##odium
tachyc
thr
phantom
establishing
atherosclerotic
ethylene
cauc
liposomes
##epinephrine
photoc
vl
template
chit
limitation
summarize
##ilon
insect
oncology
distances
##38
bw
agar
fermentation
exploration
##onduc
wastewater
canada
umbilical
encodes
kinds
##inance
droplet
cephal
homogen
gv
##odg
energies
##etamine
responding
norepinephrine
promise
dramatic
entity
spot
allevi
deplet
##bean
responders
##angements
eliminated
transforming
integrin
##benz
cosm
##hed
missing
daw
dut
genital
porous
disl
explanation
pad
slices
attending
arb
moving
intention
##nd
##regular
quanti
warranted
ccl
machine
nav
juvenile
pup
distinguished
gt
mention
los
ea
##eled
highlighted
deline
glycerol
surgically
parietal
phage
meg
##rolif
##lit
##psych
##75
##utin
relatives
reproduction
##tified
caucas
intraperitoneal
##ronectin
##opia
corn
slowly
pth
irregular
wil
blockers
geographic
evidenced
##oprecip
fluoride
##omegal
##ura
seeds
2a
coex
caries
wounds
partition
dg
reflecting
resident
preferentially
determinant
interpret
yell
apart
averaged
ipsilateral
cascade
myosin
##ulsive
gfp
periodic
asper
west
electrocardi
biomedical
ammonium
monocyte
anaesthesia
##atosis
##idazole
allergy
regarded
attend
##ius
##allow
drink
apo
prone
##39
##ygd
##entists
ses
##ocompatibility
caroten
ectopic
006
cataract
##thood
##ble
prolactin
nig
maxillary
scaffolds
minimize
##osidase
##orubicin
analgesic
corp
pollut
dopaminergic
pci
plex
submitted
leu
adulthood
obtaining
endometri
##flur
isoform
##itig
##atr
##rowth
neuroprot
tick
aryl
##ilar
manage
psoriasis
scaffold
regulators
hydrocarb
##izumab
allogeneic
propr
wear
lymphatic
trna
##acil
amygd
##ylic
allo
cardiomyopathy
##oconstr
drive
##environ
poli
optimize
counseling
##ococci
apparatus
##vem
ibd
##ida
keep
##rof
affective
augmented
##ophan
##omyc
101
mitogen
ganglia
schedule
titers
catenin
catalys
osteoc
prefrontal
toc
folding
extremity
comorbidities
codon
saliva
cot
mimic
tin
##eces
##45
multidisciplinary
##amer
1980
prescrib
proc
consumed
household
respiration
ulcers
poison
dsm
##oreg
mesh
cadh
plans
glycol
trap
cycling
iodine
estimating
##ele
sensors
termed
survived
mycobacterium
flexibility
##oir
named
effusion
accordingly
##epithelial
carcinogenesis
century
prompt
##inder
integral
finite
ascorb
starch
striatum
##ishman
##ensitive
preferences
silencing
##psychotic
##acrylamide
##onomy
##uled
parathyroid
participating
yellow
naf
##roid
endoscopy
leaders
eukaryotic
d3
repetitive
piv
prosthesis
incontinence
transc
homozygous
cyp2
hypothalamus
automatic
mrsa
osteoarthritis
volunt
mk
##cm
lid
##opress
polymerization
chiral
damaged
sensitization
triglyceride
##nk
irresp
##apine
veins
intraocular
weakness
vom
lowered
##pi
surprisingly
##rogens
heating
dismut
fabricated
rose
##ocept
virtual
coherence
104
stranded
emissions
fus
solubility
neurodegenerative
confined
constraints
continues
##onyl
adjunc
connection
follicles
circumst
demands
cust
microenviron
played
government
primers
mosqu
##inates
gingival
trimester
cac
##uvate
##enyl
disad
##63
probable
circuit
thereafter
facility
delt
streptococcus
hba1
biologically
permit
glioma
##oplastic
denat
card
##uing
iop
physiologic
confocal
detach
##aver
vulnerable
perh
rationale
gol
##otrophic
intens
macular
lengths
##mium
1992
##uli
##unctiv
fruct
1993
disadvant
ammonia
##ectic
mism
desired
splicing
terr
copies
influx
##iffer
##opus
electrophysiological
##ubin
acceptance
arthroplasty
swim
microbiota
typh
##aid
angles
duodenal
cip
flavon
aller
##ola
infarct
nick
##yclic
##affin
##acyl
cardiopulmonary
bolus
mcf
##42
ko
123
switching
adrenocept
bacterium
corticosteroids
classic
##iosis
fev
aeros
flight
dioxide
##99
stabilized
catalase
structurally
antipsychotic
flank
profiling
cyclase
108
complaints
##ecyl
shunt
proinflammatory
sulfur
themes
eventually
allograft
##hep
ll
consent
nucleic
pod
##01
trab
novem
wean
centres
immunotherapy
anastomosis
##ivity
paed
genetics
east
irrespective
uro
perhaps
chemot
winter
legal
rif
antigenic
##arboxyl
dod
america
presumably
##imp
##echanical
metric
pollen
##pyr
103
fertilization
c4
propagation
diaz
##psia
november
anthr
undet
seemed
horses
microvascular
cochrane
sprague
nac
assembled
dawley
reservoir
##mitter
##55
percept
##brain
sized
tachycardia
fourier
gynec
mercury
window
mind
##aker
microl
filling
brady
##omial
engagement
boundary
epitopes
perfused
metalloprotein
leishman
##olet
today
get
helical
thrombocyt
bb
excitatory
stain
hcg
acup
plaques
hyperp
planned
detector
mosquito
##abine
bacteri
waters
trunk
##inting
slud
##arium
remote
##diagn
senes
placenta
helic
hydrochlor
reversal
hodg
##osites
102
multil
incorporating
##uclear
ninety
##odegrad
accounting
apoe
ethnicity
##o4
axonal
nephropathy
dismutase
papillary
phenolic
progressively
angina
anticoagul
colonies
persisted
cd34
##asi
abc
ubiquitin
ppar
##a2
hazards
roc
committe
sag
zones
##ettes
007
considerations
kh
fulf
##ophyll
straight
modif
##dd
crystalline
triglycerides
organizations
internet
motivation
pretreated
germany
inherited
binary
nanom
##glycer
scored
cadherin
##icillin
m1
epitope
productivity
febr
accessible
salv
tai
dest
autism
##hypert
##otropin
splenic
arrays
quadr
zebr
hodgkin
##ielding
dair
epidural
instruction
##ince
mitotic
spherical
aβ
judg
##yroidism
medias
##enzyme
inhalation
plates
gray
hba1c
##abolic
wm
adhesive
f1
vomiting
##adj
vocal
##ozo
subd
symmetry
hi
psychiat
##ografts
biologic
microv
clinicopath
transferase
multicenter
blocker
spent
filament
views
##retro
fifteen
hygi
##amph
earth
##iac
tradition
chitosan
repeats
papers
fibronectin
prostatic
caffeine
##olding
##irubin
spir
immunized
microd
antiretro
render
february
compan
bull
perspectives
rhiz
admissions
limbs
lb
septal
rely
serological
dissolved
tryptophan
suture
##opter
##arial
hyal
prevents
abl
##roliferative
##monic
acs
organized
positivity
tro
paral
messeng
##itten
challenged
briefly
elongation
wood
fate
cdc
asperg
inapp
ka
ago
carefully
rhod
overlapping
engineered
##lyl
advance
menstr
intended
arachid
##lementing
##omod
idea
islet
malformations
nonspecific
prl
analogs
##itudes
walls
##mission
immunost
##borns
addressing
hyperglyc
pulp
##ropri
experts
eastern
tol
##ortive
pulsed
phon
1991
isoth
prednis
nadph
008
san
individually
coordinated
excited
mitig
turb
scenarios
tea
summer
dairy
cris
curative
viscosity
cough
omega
collectively
cadmium
arms
tong
tpa
titr
##flurane
##pe
big
##ochemically
hered
##tron
curric
retrieval
sludge
lineages
defining
differs
accid
twin
stream
##obs
circumference
personnel
thymus
motifs
remove
##x2
split
ie
spind
vasopress
cerebellum
##icans
ff
##otroph
inappropri
conflict
##tir
endoplasmic
mesenteric
immunoblot
p1
impairments
designs
##onazole
vt
##parts
analyse
extrap
intravenously
oz
pdgf
##ply
constituents
newborns
gem
reasonable
bioactive
##lements
resorption
depleted
emg
ophthalm
fh
exhibiting
programmes
thromboemb
dermal
##inge
##rogenic
aor
cyclospor
cholecyst
methionine
hierarchical
##entary
lands
autopsy
haplotype
##icidal
indian
links
myeloma
faculty
##amil
g2
intermediates
naph
expectations
##eria
##66
gels
ice
australian
vig
dynam
##ardial
fused
##onym
mpa
categorized
trees
nitros
accounts
rigid
##arse
glucagon
ultravi
nutrients
ultraviolet
resected
mentioned
mang
pals
kept
conductivity
##bow
matric
##ucl
ment
##exin
dust
explor
gaps
resuscitation
familiar
bases
doxorubicin
##fluor
gf
spite
antifung
##fish
##obarb
ribosomal
spring
calif
##edema
revascularization
heterozygous
dead
cerevis
semic
killed
quantities
arsenic
chr
disappeared
inherent
manifestation
counterparts
polyacrylamide
synovial
relating
spermatozoa
immunocyt
notch
cea
hypoglyc
compartments
nemat
lives
monolayer
handling
interviewed
##thy
pec
cationic
##b2
lactam
vast
trabec
xanth
immunoprecip
bmp
descending
##hal
cerevisiae
intubation
chemically
stresses
infertility
falls
##obacteria
antiretroviral
pmol
isotope
connective
anesthetized
##amel
strongest
sacch
fractional
contract
hypersensitivity
foci
##glutin
occasion
stationary
meaningful
cit
lucifer
lean
##osides
electrostatic
publications
suggestive
icd
killing
predicts
publ
theories
##iers
lign
solar
##obac
laryngeal
##epam
empt
endotoxin
##aved
thermodynamic
cub
pge2
built
##idic
131
fmri
mixing
##mv
preserv
##erated
differing
competence
collaboration
discharged
concentrated
pah
dv
planar
grain
voluntary
##hepatic
vestibular
tot
##eption
plasminogen
circumstances
##amb
stone
branches
titanium
promoters
copolym
oxal
rain
mating
kary
summarizes
glucocorticoid
##eries
leucine
saturated
disulfide
island
inputs
pw
enabling
began
synaps
chlam
##aching
##odontic
##enal
converg
tracheal
feel
##stem
107
shortening
irreversible
nause
hydroxylase
##cein
reacted
mot
##fil
##88
ultrastructural
decomposition
##47
hemisphere
kl
##59
coast
eros
##ographically
symb
junctions
##ife
plasmids
myelin
build
##ocycl
tof
##ophosphate
causative
##ented
##amino
nanotub
gyrus
centered
bdnf
lambda
pacing
shifted
demonstration
illustrated
lf
seal
##tracted
sexes
sexually
province
nausea
aeti
employment
ae
th1
americans
##ift
polymorphic
annot
hypotherm
provider
##iding
nom
computerized
passage
rhyth
soc
sah
eigh
macrom
imper
californ
##ously
teleph
cyl
##itance
centrifug
##onit
larval
facilitates
scinti
##izer
cm2
datasets
##oate
##onv
innovative
##agglutin
cations
##endocrine
dermatitis
biotin
##feeding
foss
##tium
##x1
##acycline
neuropsychological
silicon
##ifferenti
109
page
thymidine
perceptual
##olateral
applicability
##obenz
bath
managing
paediatric
endovascular
##orh
gelatin
stimulates
projection
colour
##flav
transporters
exten
retardation
retrograde
##amily
embase
dihydroxy
actively
suffer
dib
hispanic
antidepressant
connections
modelling
arrhythmias
##ocking
abortion
clonal
##32
mapped
dissolution
sufficiently
##azone
butyl
gradients
proteolytic
##opr
microsph
orders
albicans
volatile
retinopathy
chip
mediator
executive
nic
1beta
crosso
precon
rbc
envelope
geometric
converting
##ience
pi3k
vo2
reinforc
endpoint
batch
written
ww
minority
ri
aldosterone
fibre
prp
allergen
deletions
elast
bup
diaphrag
oscillations
calcification
##phasic
hernia
preoperatively
##68
mucin
agricultural
##dh
##tigm
##wan
##asal
relate
maln
phil
reciproc
carp
efficac
vill
surveyed
scc
moun
bsa
##romagnetic
supportive
##olipid
calor
topic
radius
##gic
hereditary
characterised
percentages
##sc
habits
subcellular
cytology
bones
meningitis
behind
##o3
dataset
amygdala
burst
hypotension
osmotic
atl
esters
##unting
##econd
serves
termination
##ritin
oocyte
consuming
lic
rho
diagnose
virtually
comorbidity
acl
antihypert
haemorrh
solvents
asymmetry
##oler
firing
cytogenetic
lived
unlik
##oac
cutoff
ami
participant
grass
##ido
methoxy
##entric
##idone
guideline
attacks
porph
antifungal
##44
##mcs
quickly
unlikely
sports
continuing
restr
##traction
flag
choline
hemorrhagic
##fc
matrices
players
electrophore
propensity
als
degenerative
indicative
fifth
##ipr
imbal
##amidal
rules
consultation
neuromuscular
##erate
ber
faecal
epileptic
##ineal
##onectin
brains
glucuron
seconds
underestim
enamel
##rug
mcp
ordered
fv
##oxicity
extin
lattice
phospholipids
micromol
soybean
clinician
extrac
lew
axon
renew
sacrific
retr
##utrition
accomplished
intellig
cloning
boy
adenoma
aquatic
##rotomy
ldh
modifying
cerebro
autoantibodies
trypan
pock
tropical
fibrous
aux
t2dm
##ontrol
confirming
cleft
b1
##afish
##berg
puber
luminal
##inical
french
beta1
citrate
microw
##odic
zebrafish
##ocaine
##version
microenvironment
sedation
dysreg
biodegrad
th2
ngf
endocard
adequately
contempor
indometh
rip
exceeded
hela
##arynx
cone
trif
##33
dominated
bridge
epsilon
##fo
follicle
fulfill
##h2
tongue
radioimmun
µm
publication
##while
kcal
##eties
reconstructed
verify
sharing
conjugate
bax
skull
asthmatic
demographics
indomethacin
##opre
telephone
phospholipase
pell
district
##ondyl
apt
displays
semen
vesicle
tio2
clock
succin
oligos
revised
reagents
crf
dichlor
##cd
fire
enlarg
crossover
sporadic
adenovirus
glutamine
spik
thous
deposits
priming
intensities
##asome
screw
impedance
##tification
opinion
##ersion
115
office
grades
match
dilatation
intron
curv
osa
infused
##tructures
her2
ew
##obulin
mumol
embolization
atmospheric
##opyran
##alin
nicotin
behaviours
creating
adenomas
hydrophilic
##atinum
bayes
sput
perp
##omyel
exha
investigators
apolip
##plantation
##oms
falc
thiol
anova
electrolyte
segmental
##tituted
retrieved
absorbed
activates
calves
nodal
amine
##ovir
expand
##ois
committee
fourteen
vaccinated
troph
preceding
##inform
isomer
deox
scope
confound
scaling
##xa
immigr
multiplex
inappropriate
##onn
sigma
foundation
##ohex
imag
vasoconstr
covering
inactivated
stepwise
apnea
mediates
ends
apolipoprotein
exploratory
augmentation
definite
crohn
pyruvate
departments
posit
##romyces
##rost
superv
weakly
bv
messenger
filaments
primer
morning
ineffective
sequel
debate
ecl
palsy
neuroendocrine
painful
divergence
palm
1988
perforation
##ophosphamide
cck
aq
p21
oxygenation
faces
accommod
cooling
monthly
##oglycan
curc
geographical
islets
golgi
##atics
1989
ling
corpus
amput
luciferase
polycl
##m1
##abd
inhaled
neighbor
constitutive
ord
tumorigen
oxyt
multif
interfere
graded
downregulation
whil
recessive
temporary
burs
asia
confirms
actually
##oal
epine
folate
##role
alp
singlet
concerned
traffic
epic
arrangement
whilst
hands
locomotor
##anolol
mobilization
##urgery
hamster
livers
tors
compact
away
gather
blinded
paclit
prosthetic
adsorbed
antihypertensive
exerted
breastfeeding
stimulatory
degraded
n2
##inted
##istrib
paclitaxel
##ulas
pathophysiological
habitat
possibilities
acceptor
discriminate
lipase
schw
ctl
quench
transcribed
terminals
eliminate
selenium
##omed
vanc
expenditure
urgent
nanoparticle
cochlear
bn
surrog
monotherapy
reflection
derive
adiponectin
cpg
angioplasty
##etrical
fum
mun
##uge
bench
##d1
tubes
substitu
salts
cast
##uloskeletal
immunocomp
typing
sphing
rum
##otom
lysis
extending
radioactivity
genotyping
regurg
heavi
137
##plicate
segmentation
deformation
penicillin
learned
duplex
sug
maize
relig
##afil
bilirubin
sbp
initiate
mutagenesis
polyethylene
lymphomas
atopic
##aromyces
projections
reagent
somewh
embolism
##vation
physic
brainstem
natri
confounding
##yel
##osper
elicit
cyclophosphamide
microsat
expiratory
entered
nonp
nif
percenti
accordance
reliably
strengths
bus
abd
##asp
dan
cesarean
journal
ether
gent
##ificant
musculoskeletal
acin
##orbol
diameters
##uterine
chemokine
##itating
taiwan
afferent
conjunctiv
ferritin
h3
emphasize
waist
king
mec
capabilities
mds
unex
chance
##ofol
##orac
claims
##ompass
sided
epidemiologic
transpl
helper
##esophageal
priority
##inos
vasopressin
regime
differently
##oreceptor
deviations
allocated
128
nail
encompass
bim
noct
mutated
##incter
vulnerability
mtt
immobilization
##anin
sixteen
##mann
c5
synapses
##ka
ubiquit
striatal
interfering
lavage
rodent
intramuscular
stents
##otopic
lactic
##ading
##k2
spike
sensitized
pivotal
##oprotective
##alanine
breakdown
loads
monomer
##ilis
##ona
##36
platinum
##ethanol
propranolol
deposited
inconsistent
##ignificant
nitrite
##titude
009
adolescence
##aplan
129
balanced
battery
immunosuppression
erythemat
seropos
noradrenaline
##ulators
##aterials
inositol
taxa
##ete
catheters
uterus
##ussian
hmg
soon
esophagus
ultrasonic
240
##odend
negligible
outbreaks
clot
proteinuria
##ipped
tracer
rm
##aminase
thrombus
##otechn
##77
unres
sut
pathologies
thrombocytopenia
originally
##agr
cytosol
morbid
fluoro
kaplan
latin
µg
agreed
confirmation
summarized
granule
microglia
##osum
tear
varic
forear
mtdna
sector
##odi
electrophoretic
plot
dendr
polyclonal
iran
exponential
##artan
icp
california
##ushing
##ney
stratification
exec
somewhat
experiencing
successive
antip
totally
benzene
##traum
dehydr
taste
dried
grouped
##aced
medicare
operational
h2o
##coplas
vertebrate
warf
veterans
dissemination
duc
occip
doped
2b
##ophysical
rcts
chart
##gluc
positron
plexus
##etine
apc
argue
thirteen
##urium
diver
aerosol
dpp
extinc
##lutin
##opropyl
disabilities
antisense
##astric
avian
biosens
purs
##nes
immunomod
avoided
births
humoral
##lipidemia
##zymes
##000
propofol
femur
heterozyg
##illa
menstrual
urolog
##ods
specialist
syr
particulate
unfav
spindle
diagnosing
downregulated
multidrug
##oney
##46
safely
hop
ee
hrqol
116
canadian
antioxidants
endometriosis
prescribing
##urons
fabrication
##hex
traditionally
118
chronically
mg2
##ersonal
vitre
##ocyst
refractive
vw
assistance
detrim
scd
nir
##keleton
##place
stack
vapor
harvested
##ittal
schist
dft
positioning
nct
fitting
register
gradual
peroxis
facilitating
##oti
acupuncture
##emporal
sacc
conducting
wider
phospho
lysosomal
medicinal
cerebrovascular
jnk
indirectly
differentiating
##enem
immunoassay
gps
invari
chlamyd
cosmetic
agglutin
ok
rodents
##estr
gallbl
c6
aggression
hold
altering
##31
periodon
hyperglycemia
spatially
dysph
immunostaining
##urin
epinephrine
raise
##electro
cow
custom
contemporary
italy
attributes
chap
##opathology
hope
caudal
##idol
viewed
inequ
interventional
zeal
##onium
##timal
attitude
come
board
killer
nocic
sor
travel
##ozyme
discontinuation
fructose
135
##oxidase
carbox
hole
crt
##anic
borne
multis
table
keratinocytes
pma
sheet
phi
synthet
##glycerol
preec
lactation
beads
conjugates
bring
union
physi
qp
meier
##utely
##nary
interd
intrap
notion
clients
korean
##bone
genera
restore
##odiaz
paf
biod
deformity
fungus
pyrid
##imaging
##ofacial
##amma
disrupted
##thrombin
routes
##acaine
##yx
somatostatin
zealand
##vastatin
medicines
##orated
chickens
mirr
covalent
normot
racial
sediments
acceleration
wrist
falcip
neutrop
hap
##bred
mtor
1b
moist
deterg
fb
hygiene
hypog
deploy
##oea
126
neuroprotective
dq
spots
originating
bromide
glycosylation
depolarization
semantic
unn
unexpl
pollutants
county
##xr
ingr
lymphaden
stones
intercellular
pmn
voc
fen
edta
##ita
e1
chemotherapeutic
##formin
2018
senescence
##odem
amongst
granular
fitted
entrop
neutralizing
##ecific
exerts
##urea
cuff
##onitrile
angiogenic
implementing
b2
margins
##rexate
##rio
morphologic
dentin
codes
piper
proteases
cgmp
##aran
train
accident
neoplasia
interacts
sphincter
brought
inversion
endpoints
timely
##ylase
1987
##fall
##oxane
scenario
military
suicidal
##olecules
##ustion
desirable
floor
iqr
##atectomy
##atite
addiction
digestive
worm
rearrangement
##erum
designing
polysaccharide
aminotransferase
ultra
stretch
falciparum
dextr
##inesterase
creatine
convenient
incremental
hn
hcl
overload
trache
##osamine
intrauterine
revealing
##pation
erad
112
compromised
##adm
##98
diffus
##rophot
solely
prepare
simply
couples
poisoning
functionalized
presentations
gallbladder
calf
asa
src
hydrogel
ran
yielding
assumptions
flaps
psychosis
mag
extinction
##ishing
aberrations
acetic
ik
linearly
ingred
neuroblast
##onuclease
##arinic
##bir
postin
kil
visualized
functionality
proof
##ropo
##urations
hes
desorption
pbs
kv
##growth
oce
drivers
pharmacy
fractionation
endoc
nickel
judged
sheath
hepatocyte
intracere
repress
patency
harmful
lock
rotational
##opher
efficacious
##lv
##mo
grading
bank
transcriptase
carbonyl
curriculum
arachidonic
proline
neoplasm
biomechanical
compensation
dot
catheterization
cxcr
sav
caucasian
corticosteroid
disseminated
##ortical
magnet
contribut
origins
appl
toxins
recurrences
initiating
france
tubules
##otrexate
mtx
forearm
##omethyl
polymeric
##hyd
tailored
unid
hydrochloride
nn
entirely
monte
washing
1α
##ationally
plots
bioinform
sequelae
β1
##ecess
overexpressed
echocardiographic
trajector
benzodiaz
metformin
iliac
diagnostics
organizational
haplotypes
##umb
angular
trajectories
incomp
transpar
physicochemical
methan
modeled
tat
stock
polypeptides
york
dens
##grav
tubulin
comfort
1985
##opharyngeal
##gd
creation
anter
enhancer
nich
rescue
histopathology
pfs
subf
oligonucleotide
possesses
methotrexate
vancomycin
##elia
##iate
bayesian
insensitive
bilayer
serotype
manifested
titer
##atric
dodecyl
spanish
covariates
deleter
##iab
##isely
intrath
smad
geometr
lake
diphenyl
histopathologic
##agia
plur
##wards
170
proximity
##iently
beds
postsynaptic
lactobac
cue
paraffin
deleterious
145
radiolab
##ipping
##ldl
microsomal
generic
amide
insects
ceramic
die
distinctive
specified
identifies
coexist
##orin
ics
icam
parenteral
funding
radioimmuno
freezing
##iesis
ascending
airways
tx
saccharomyces
spreading
heterologous
##otent
selectin
electros
kinematic
encode
ivf
aga
##amen
fruits
counting
warfarin
##2b
meanwhile
hbsag
bundle
exons
bios
gains
spectrophot
enlargement
pacem
circuits
disordered
aki
excluding
rays
postulated
curcumin
##aterally
eradication
m3
avoiding
endothelin
detrimental
supplements
hct
ascites
##yrene
prev
broader
plateau
cobal
##je
deng
buc
##amed
##ican
discom
amplitudes
forens
definitions
weigh
pars
expensive
instances
microwave
dilated
imply
##meth
collaborative
cytoskeleton
pdt
benzyl
microspheres
permits
homes
pesticides
elab
salvage
##istribution
##ipt
##otropy
schwann
paid
voice
adducts
regurgitation
delays
##kinin
tons
consolid
felt
phenol
##oracic
realistic
contexts
tablets
##ibrill
intakes
discipl
occasionally
##oreal
supernatant
misc
erythropo
hypertherm
##58
##flex
catalysts
implies
stroma
abdomen
documentation
disparities
advers
plasmodium
lipoproteins
insectic
trade
carboxy
ischaemic
laparotomy
##brids
regularly
recycl
equival
microsomes
pas
venom
cbf
alternatives
advice
carbam
radioactive
excised
114
develops
bcr
photosynthetic
era
corresponded
robotic
oval
dengue
euth
gag
pgf
interactive
gfr
##vac
fuc
##atalytic
aur
##rep
vip
happ
girl
concordance
isomers
zno
energe
interm
pai
works
helps
assembl
nude
sciences
##ya
adoption
odor
tv
##oneph
1986
borderline
carlo
microtubule
accumulate
lamina
axillary
metallic
##inin
##yrate
adipocytes
subtil
freed
##ocysteine
##infected
epidermis
ecosystem
topics
accessory
inability
##ofen
##umental
sna
quer
fev1
arous
117
##osensory
allerg
ductal
corticosterone
##chol
glycoproteins
intrad
##head
remed
selecting
backbone
##rolimus
antiserum
posttrans
dha
allocation
rock
##n2
natriuretic
##agg
captured
pka
cadaver
##itabine
aspergillus
discomfort
sagittal
mets
http
failures
infusions
cholangi
crossl
synthesize
style
nap
interpl
##odyn
rej
constric
swine
probiotic
vm
pcs
stoch
##li
ances
projects
##oxifen
##pd
infrequ
msc
opt
##inyl
illnesses
2h
mca
normalization
glycemic
ascertain
trafficking
residence
amylase
entities
depended
len
sputum
decompression
##oking
therapeutics
doctor
bid
constitutes
##ivacaine
##imes
subtle
##tiles
##rist
chemo
gw
##nam
ix
subclinical
format
unnecess
myocytes
metaph
expanding
deduced
suspic
amorph
anticoagulation
ageing
brca
malnutrition
aggregate
postural
representations
micelles
resultant
cleaved
chimeric
ja
relies
eighteen
elbow
pharmacologic
cooperative
phagocytosis
##78
a5
##omyelitis
spain
##ua
vibration
precisely
orthop
subtilis
exploring
fluorescein
bottom
forensic
mabs
sociodem
psychotic
regenerative
security
choices
physically
willing
##ichi
outflow
124
filters
calmod
cup
phorbol
ash
350
##ximab
bill
synthetase
##aind
##eptidase
##atization
reserve
docking
##ativity
simulate
programmed
oxytocin
jaw
attended
##cell
paradox
##respons
mci
utilize
chondrocytes
allelic
detachment
rcc
periodontitis
##olol
polarity
parenchym
encapsulated
##adh
##ocysts
sedentary
histidine
teams
existed
##iest
parasitic
hydration
neuroimaging
urethral
analytes
progenitors
uncover
module
gated
iter
##inery
stool
polarized
210
anions
necessarily
removing
##quine
quasi
##anz
semiconduc
ign
properly
pcos
patches
calmodulin
##ky
bcg
hyperch
tomato
sociodemographic
escape
hyperactivity
##acrylate
competing
bruc
substitutions
##ullary
##ulsions
bms
##edge
thickening
##thetic
sides
rl
polyps
oss
lymphocytic
##eremia
icc
hysterectomy
1alpha
underlie
trib
incorporate
afl
##eptic
monkey
crow
monolayers
1st
hv
nox
mosa
dextran
##oni
consumers
ulcerative
lidocaine
13c
geriatric
tocopher
##ulae
suspicion
oligodend
##abular
granulocyte
tumorigenesis
surviving
##eted
macroscopic
velocities
chf
solitary
title
isopro
190
##noid
nocturnal
##eced
trail
##ietin
intran
##ordant
angiographic
bk
##itonin
rising
employees
igfbp
##rofloxacin
hepg2
narr
##69
##omere
boundaries
anticoagulant
ovari
bub
conditional
normotensive
##41
##iated
disk
observer
malt
##vive
gg
duplication
cured
##trin
proliferating
encephalopathy
##inement
##elle
necessity
alive
pde
dependently
polyphen
italian
##graduate
scintigraphy
spray
dilation
hypothermia
biphasic
electromy
##iles
##onical
##cetin
pocket
adenine
preferential
microsatellite
tunnel
pon
##aa
terat
bact
cultivation
spondyl
transferrin
micrornas
adrenoceptor
##andial
stochastic
composites
emphasized
hrs
unfortun
qpcr
pyramidal
diethyl
modulates
vibrational
##irection
hybrids
outpatients
hat
##ball
##ophilus
anthropometric
stressed
imbalance
disappearance
intravascular
overt
victims
explores
muscarinic
contraceptive
##tise
theoretically
amniotic
attain
shapes
columns
tightly
##yz
cabg
##uan
performances
##mus
promp
satisfied
configurations
##anese
##hr
eosinophils
sto
cha
##lyca
detox
analogous
specialists
que
##ussis
swallow
interplay
ache
##akers
ethics
caution
##acrine
engaged
breaks
cass
##oactive
surrogate
tlr4
rsv
##borne
##iii
##ievement
##urt
maze
f2
stake
##amicin
teachers
instrumental
tuning
##asting
necrotic
labelling
##aign
enlarged
vasculature
##c2
##62
##treatment
occipital
babies
immunoprecipitation
113
hpa
deficiencies
700
whereby
integrating
##iguous
spaces
korea
neuroblastoma
##inositol
119
ut
presumed
122
rms
lenses
survive
##iders
illustrates
agency
thio
modulus
reactor
morphologically
tolerability
road
##ifier
scann
polyn
ease
##glut
conflicting
##lampsia
cooperation
##73
microbiological
freedom
##onine
epo
##du
feb
dispersed
subpopulations
cryop
erk1
##enoid
hypoglycemia
dislocation
palmit
vib
##kary
stat3
##oke
observers
##alent
generates
hematoma
preeclampsia
aspar
achievement
nonh
nafld
campaign
drought
npy
compensatory
##arter
frail
alph
neurotransmitter
interpersonal
electrons
tamoxifen
##achlor
##osex
uric
synapt
gvhd
##omyces
erythematosus
pater
percentile
capill
intellect
weaning
vertebrates
glp
integrate
potentiation
##idym
procedural
cardiomyocytes
##umination
parenchyma
segregation
appra
chaper
nanow
ich
intoler
freeze
unnecessary
##jug
##quis
coordinate
amorphous
loops
siblings
rearrangements
corresponds
evolving
##itate
emt
ppi
adherent
intersp
disab
generations
rigorous
##ulins
##enoic
##ena
bright
mdd
transplants
atax
wire
##opathies
##eliac
##ourse
sma
##o1
sox
##izable
ozone
##yric
##ece
##insulin
pyrim
##ocortical
reass
lncr
##osom
##band
##ml
twins
sulphate
surround
##arbonate
neovascular
##ectory
##obacterium
obstac
septum
mich
##list
attentional
methane
casein
pertussis
dyes
cxcl
indexes
##orax
##4a
##oidosis
landscape
mad
simplified
025
bag
herbal
trajectory
##atology
scalp
scavenging
endurance
##ophilia
biosynthetic
radioimmunoassay
reciprocal
archae
nalox
hypertrophic
preceded
##imide
basement
smear
cw
perfect
oxidant
##icip
brachial
fly
formalin
qualitatively
favourable
uve
chapter
vegetables
approximation
rpe
technological
menisc
dimers
worsening
isop
midw
medullary
bending
##h1
sj
scheduled
quantitation
acidosis
##igenous
pahs
psychometric
bonded
epididym
investigates
oxy
fuel
##ulent
sigm
sparing
intramolecular
extremities
galactose
##obi
quenching
##79
operator
##ritis
incis
comprises
germination
##ystic
cyclooxygenase
##obarbital
talk
##itter
circulatory
jak
collateral
grew
exceeding
aluminum
fingerpr
libraries
stressors
hsp70
statins
##ortem
triggers
##test
mosaic
introducing
##igenic
weaker
replace
haemoglobin
##ji
3p
juice
##d2
##worm
suppressing
gonadotropin
roll
##ewise
amen
resolve
encouraging
uncontrol
newer
malformation
unfortunately
##otemporal
hsa
bony
tolerant
signature
proteomic
##okinase
##dis
##gestive
advoc
133
answer
##agonal
addresses
##cg
##iterp
realized
antin
##0000
highlighting
missed
contaminants
##51
characterizing
lg
perturbation
hypercholesterol
crisis
toxicities
##onymous
cll
mechanics
obstetric
metrics
camera
sterile
##ander
##zz
##oselective
##ifferentiated
##tivities
invest
trust
atrop
vent
medulla
appropriately
jo
municip
hydroxyp
pears
ssc
dielectric
##rotid
naloxone
abrog
protecting
##ouracil
danger
##iline
waiting
nadh
cryopres
brush
insol
curvature
anisotropy
##otyping
ca1
hern
joh
##orate
oils
vd
##arach
treg
accidents
cd44
ky
clustered
##admill
ecc
##operoxidase
npc
neighborhood
palate
bad
consumer
sorption
##uran
treadmill
dedic
neuropathic
ftir
##ynchron
indigenous
political
patent
interfaces
chemokines
lept
von
##nm
##urc
heterod
thalass
unw
##marks
stores
arterio
theta
##amn
fid
5p
discrepancy
methodologies
alters
reinforcement
mediastinal
enteric
ubiquitous
colloidal
imid
cigarettes
england
##imension
##inities
retinoic
excitability
155
homogeneity
workplace
ketamine
repression
##orable
vacuum
labour
formulated
clostr
determines
swimming
responsibility
vte
ascorbic
##72
##grp
seedlings
nu
hypothyroidism
transcriptome
dystrophy
desens
condensation
##ositis
##andibular
hypothesize
discrimin
ahr
biofilms
##hol
arrhythmia
unev
brazilian
catalysis
mismatch
phenylalanine
methylene
##opy
illumin
ica
##oxia
distinguishing
nested
problematic
transit
##relin
##ughter
accompanying
orthodontic
##empl
engage
##orex
##therap
cd11
compositions
ecosystems
parasit
clinicopathological
mandatory
##traumatic
xenopus
emo
s100
laminin
##nitine
gentamicin
pha
allergens
radion
pem
verap
##osexual
##umps
##omavirus
##ends
silicone
conformations
##ictor
tolu
121
cong
##icious
microflu
gastroenter
agree
desm
caregiver
##functional
horn
impression
microtubules
##ieties
verapamil
mrs
isometric
tetrahydro
##ophenyl
stopped
prototype
intellectual
droplets
##iled
exercises
drying
offic
adc
##tigma
dependency
machinery
suggestions
nanotubes
dedicated
legis
hematological
capacities
##1b
proteasome
discussions
progressed
divergent
ciprofloxacin
pearson
testes
lewis
retain
##epsin
scientists
antenatal
calls
##adjuvant
conce
mail
amputation
leadership
metalloproteinase
##ophylline
combine
scarce
centrifugation
reform
##genesis
anticipated
##ez
homocysteine
nodule
##odex
127
astroc
sustainable
administrative
orn
managers
contractility
elemental
postpr
encourage
trav
##oxetine
seminal
regulations
entropy
rhinitis
transported
trabecular
ks
illumination
sorting
reoper
transiently
radiography
fda
##100
pools
histories
electroencephal
aetiology
thaw
potentiated
perip
transgene
suspensions
antipl
suppressive
kir
valves
##anus
void
cpp
epi
vf
mesoth
efficiencies
flanking
ej
avp
packed
tuber
lysozyme
opposed
antidepressants
mexico
##aches
nont
calibr
##nar
hypo
laparoscopy
abeta
leaving
bicarbonate
spiral
##onephritis
arousal
##hi
simplex
updated
##emed
condom
puncture
radiologic
##amol
##ranean
ischaemia
attained
htlv
translated
microns
##quinone
##acheal
##acetic
plain
presynaptic
grating
##ialdehyde
hir
##m2
##vix
suited
nether
prey
thymic
##iella
thalamus
periv
closer
supine
coagul
prere
federal
constitutively
ovulation
##ania
##develop
coded
titration
collecting
glomerul
##ogeny
broth
veterinary
master
anomaly
##itamin
ova
necro
contextual
dyspnea
evap
##esthetic
plurip
orbit
##ills
neutropenia
islands
rights
132
colonoscopy
sugars
abstin
collect
interfacial
reperto
ghrelin
##omnia
##ocrit
opioids
analytic
helicobacter
eds
cannabis
canonical
packing
nanocomp
220
practitioner
nephrectomy
imprin
pyro
compromise
congestive
purity
adenylate
ward
##ymethyl
##uinal
p16
sonography
138
sweden
ileum
##clim
rfl
effluent
##iber
splice
conve
clo
utr
measurable
stigma
undetectable
##rolase
##osoma
discharg
triaz
##ionate
aes
netherlands
dropp
h⋯
thirds
commitment
stoichi
pbmc
c18
dominance
aligned
pose
rid
elution
worksh
cylind
##zes
radionucl
mip
parametric
propyl
modules
obviously
##quar
antisera
breed
dysregulation
pom
qs
esi
possessed
strip
metap
extrav
portions
neuroc
mediter
##bach
slice
tonic
webs
lamp
schemes
manganese
immunologic
trigem
acutely
torque
enos
cobalt
approximate
146
atmosphere
##bd
osteotomy
typhim
serotypes
satellite
cholecystectomy
##diagnosed
artifacts
soph
sweet
pups
leukemic
arbitr
##acs
suspended
wake
##itre
vasculitis
inexp
els
laryng
typhimurium
neoadjuvant
##irectional
expertise
moisture
amphetamine
protects
periphery
grafted
rdna
inheritance
huv
intelligence
anionic
oxo
sevent
mutual
overexpressing
hoc
##olation
undes
expectancy
##ucleotide
smart
habitats
##itum
enroll
assuming
accr
##120
heavily
cel
shortened
nigr
detergent
sensation
emotions
##cales
mucus
cyclosporine
febrile
osteogenic
encephalitis
gov
sedimentation
hematologic
ultimate
##tillation
adam
##itish
hemodynamics
hit
hydrocarbons
confounders
approval
originated
osteoclast
cml
flash
phthal
cornea
exud
genotyped
contraind
covalently
symmetric
##mi
virolog
##54
##oderma
##aric
assignment
triggering
immunoblotting
ensemb
moieties
orf
##inator
oncogene
cytomegal
##del
##ris
conception
medicaid
paralysis
parox
spirit
branching
organelles
orthopa
##enn
collapse
cholest
subop
serving
##ker
reticul
cil
sad
mineralization
phosphatidylinositol
biased
volumetric
manufactur
dbp
##infection
alternate
initiative
cultivars
crest
solving
preserving
pelvis
meningi
tensile
vinyl
accessibility
##ostr
##opril
transloc
indoor
skeleton
pacemaker
##bound
ws
globally
##olys
interne
figures
##iff
1984
inhab
charges
1970
whites
##ulture
zo
diseased
##ught
kingdom
rnase
144
##oreceptors
internalization
raises
atropine
valv
##imensional
##urate
##roch
##ocryst
##rops
##52
anaemia
microrna
##tide
consciousness
pacific
scf
spores
##omorphic
manufacturing
frog
cpr
##opause
thrombotic
postprandial
bbb
calp
acetonitrile
stenting
##cephalus
latest
nodular
coherent
tetracycline
hospitalizations
18f
chl
households
afp
affinities
deaf
cities
##iomy
vitreous
##ortal
oest
transmit
informative
tocopherol
chlorophyll
donation
likewise
infancy
potato
submuc
##oste
##oted
exclusive
taxonomic
seventeen
##optic
daytime
pcp
dal
supernatants
nucleoside
raising
capillaries
resten
explaining
irrigation
surgeries
##nps
vwf
agencies
increment
tang
conjugation
##neal
##olism
##azolium
##ilum
##ama
hemolytic
##uling
##uns
coat
transducer
osteoblasts
autoradi
vitr
secreting
##yles
triphosphate
##omotion
branched
##nals
##oplasm
comprise
begin
copolymer
##entanyl
infiltrating
vox
##oplasts
proteomics
sparse
diabetics
hinder
foam
cage
lutein
infras
sacrificed
##orporeal
cervix
acquire
tidal
distortion
trapping
vena
oligonucleotides
rotavirus
thinking
recommendation
radiology
nose
inexpensive
##atinib
package
mandible
measles
##imil
deeper
##birth
pir
##ochlor
progeny
triplet
career
vr
note
##eles
##hips
cryp
silent
##olith
contour
quercetin
##±1
carbohydrates
##amid
pcb
dith
motone
specialty
##ophores
journals
hrv
##produc
##atelet
overd
##idi
##fulness
b6
sciatic
exacerbation
insoluble
unm
outline
plantar
subcutaneously
lactobacillus
##ubs
pcl
postmortem
nev
mep
undersc
farms
##adium
disposition
monomers
pharmacists
##terenol
impacted
combines
##itoneally
cd40
mediterranean
pix
neuroph
repeatedly
sheets
nlr
##ammon
cytomegalovirus
outlined
depolar
unin
crown
arteriovenous
##atil
hgf
##bles
rhythms
innervation
neurotrophic
eq
endocarditis
unsaturated
maldi
anorex
monocyt
phosphodies
humidity
##peritoneal
pand
##g1
telomerase
##assays
##olk
cyp3a
glucocorticoids
proteinase
##organization
##athers
ovaries
##plicity
unfavorable
melting
bpd
came
seropositive
liv
##r2
anp
benzo
##room
##acetate
##aceous
mhz
elegans
a549
##requency
inverted
sarcoidosis
exclude
cd45
ibs
ou
wb
##nic
##ogroup
prostheses
148
dealing
cing
independence
osteosarcoma
primates
##hythmic
initiatives
##ectomies
periton
collective
amines
neurones
replicated
##ithromycin
undergoes
##uspid
overestim
instance
carboxylic
pak
flavonoids
audi
disturbed
pharmacodynamic
oblig
3a
snr
##imeter
distinction
holl
fibrils
khz
pneumococcal
catabol
searches
trigeminal
suboptimal
cathepsin
este
dopa
broadly
alloy
monophosphate
nifed
insomnia
texture
firm
nh2
viii
penetrating
##enses
enk
mammography
cotton
gamb
kle
dutch
synchronous
litter
proteolysis
autonom
##l1
parenchymal
competent
multin
salic
seques
3t3
uncontrolled
determinations
kcl
##enders
steel
individualized
##inis
##oprost
stabilizing
endometrium
015
exploited
##ogether
caring
fentanyl
plaus
nifedipine
tomographic
##oxication
##calc
timp
nsa
haemorrhage
##uminal
freshwater
##dynamic
altogether
gar
british
physiologically
alternatively
##64
neutron
automatically
isoproterenol
malond
mps
accelerate
uniformly
##inoid
##roline
##orations
stretching
sensitiz
keto
implicit
trh
wing
##onder
keeping
compares
www
##izers
tow
tar
helped
discriminant
ry
arises
##85
##erine
##quartile
controversy
phosphatidylcholine
discontinued
aba
cpt
intoxication
digit
cet
bifurc
baby
eat
coastal
ducts
audit
subarach
fk
##aul
notable
undifferentiated
##omide
transpos
nih
interquartile
explains
##trial
elusive
marital
bnp
disadvantages
troponin
parotid
somatosensory
bfgf
bod
ton
charts
mannose
suppresses
##etite
##riting
primed
attenuate
radiologists
protr
##pray
ecs
hept
touch
hydrogels
##inally
versatile
dispersal
superfamily
housing
intraperitoneally
leishmania
1d
multip
139
bactericidal
leukaemia
##tebr
welf
flor
##ocele
tym
associate
robustness
redund
preserve
crops
cultivated
indole
posttraumatic
sew
peritonitis
bg
##amate
sport
##omatosis
extends
ventilatory
whit
virulent
characters
corrob
searching
fibro
linker
restenosis
##vern
fisher
discrepancies
esteem
midline
residential
bioinformatics
groundwater
supplementary
welfare
sit
globulin
qtl
##absorption
tibia
parenting
hemangi
declines
malondialdehyde
continuum
nationwide
flies
tablet
##71
positioned
##ropyl
quarter
rheumatic
##axial
adjunct
ptx
reactivation
prolongation
lumin
freely
ppv
ocean
proposes
emulsion
cutting
nanocryst
##py
##urf
resili
implying
134
vegetation
replicate
hyperthermia
iodide
hamsters
spanning
uninfected
flows
guanine
pyridine
inpatients
instrumentation
##uliar
##tt
##lated
oestr
jump
tips
altitude
topological
peculiar
prerequis
cag
toll
##ket
incen
nhl
kj
moral
menopausal
cgrp
esrd
dysphagia
amd
ataxia
oesophageal
##iliated
myofib
choroidal
alf
##ypsin
##actone
psi
posture
fluorouracil
impuls
erosion
durations
remn
##itch
infective
notic
##rect
permitted
offering
classify
psychiatry
##ticals
offset
stap
displaying
reality
methylated
##ondii
swedish
friends
methicillin
tremor
tracts
##oto
##ographs
references
plc
psychopathology
earliest
99m
delivering
##otri
documents
deleted
##cope
dichro
narc
##cycl
##best
231
elevations
##icl
religious
microal
bap
##ishes
carc
pouch
cellul
subarachnoid
##oalveolar
emptying
diaphragm
disin
dots
##dc
012
gaussian
prescriptions
s2
##apatite
osse
##oter
poul
relapsed
histocompatibility
mib
occasions
atrium
dbs
cytoskeletal
diploid
inspiratory
buccal
##oglycans
1982
inguinal
eyel
fg
continuity
##itivities
##aicin
##cl2
precondition
destro
monocytogenes
##atrol
homogenates
leiomy
beef
string
readmission
prostatectomy
neurotoxicity
displaced
maca
odont
escal
photosens
naphth
osteoblast
adduct
##amins
afm
bulb
sentin
acceptability
lifes
ampk
grand
99mt
##osm
calculating
strictly
nrf2
parv
tilt
pax
telomere
cavern
electromagnetic
multifactor
update
iris
##acute
carnitine
##using
ocd
cava
dehydration
anomalous
recoveries
##inous
smears
denti
discharges
epr
obstetr
orthopaedic
uncon
##ications
##iop
##ofrequency
uncomplicated
bpa
everyday
##ned
pores
morphogenesis
superc
##unctional
gastrin
cd25
##veratrol
glioblastoma
reconstituted
pyrene
leave
opportunistic
adopt
repetition
menopause
thromboembolism
cirrhotic
rflp
##idia
grap
microcirc
carcinogenic
pun
136
168
##night
microin
threonine
##opoiesis
##orrhea
capital
stably
nhs
##itan
##istine
incorrect
endocytosis
bioc
checklist
directional
music
##esus
##therapy
##electron
tele
puberty
##xine
##imentin
pter
myo
cytological
##elastic
salinity
tal
paste
##eterm
##ford
##aginal
capsaicin
enterobacter
civ
cdk
rifamp
horse
pathogenicity
tears
preinc
##son
zyg
nid
##97
alternating
##ulse
turkey
cave
kc
intermolecular
monomeric
proteome
rnai
apex
client
spacer
scl
duodenum
microfluidic
vimentin
hox
##ipar
##anyl
radiofrequency
zym
legs
cds
feelings
rectum
scattered
nsaids
electrospray
attracted
##icted
symptomatology
opac
squares
tert
refined
dressing
substitute
extracorporeal
metac
##hedral
operate
dipole
##romic
solve
ureteral
neighboring
norms
hdac
accumulating
anaesthetic
##oreact
1983
recycling
maximize
papillomavirus
cd14
5h
hen
##trials
unexpectedly
beats
retest
pesticide
seq
diarrhoea
clarified
resveratrol
##orphin
enrollment
outgrowth
knees
##forward
ny
##idden
##anch
concentrate
orange
wi
catecholamine
tagged
inferred
rim
adversely
##aded
fec
spectrometer
##izz
lod
##aryl
nanostructures
supers
acclim
teg
##acterium
descriptions
neurophys
##uistic
presch
justif
thigh
##uates
agarose
triang
hus
explanations
stated
ors
##rophin
repertoire
aven
erythroid
choose
recognizing
##udin
resis
aggrav
##othorax
mechanically
playing
gases
##opharm
congr
vagal
##zer
3rd
mms
sert
scot
stereot
##iring
##holders
tent
2nd
##bf
lactose
chitin
##estib
chromium
concurrently
neuropeptide
fundus
antiplatelet
epa
hamper
immunogenicity
##enone
outd
cpb
decarboxyl
intral
subclass
adaptations
##cor
clinicaltrials
signatures
iib
##azolam
desire
##orylation
quantifying
##leting
delir
niche
platforms
medically
oncogenic
ritu
##fen
viewing
##oxon
ileal
ninet
##erents
suitability
noticed
153
belief
##dv
spastic
harmonic
faced
insignificant
probabilities
broil
nineteen
aps
##omegaly
##ei
maturity
##uber
permeation
gsk
scanner
twofold
175
arranged
sickle
##imid
##ju
sorb
mirror
tubule
overs
alginate
nicotinic
gbm
neurodevelop
erbb
nv
hyperth
engr
prime
biotechn
stern
interl
linearity
##ectile
##isal
vegetable
hrt
##entic
##61
molars
##atable
beams
lister
absorp
ears
##cnac
purch
sla
900
clade
globin
fairly
convergence
sophistic
disclosed
longev
##oxib
freshly
99mtc
penile
aesthetic
rhesus
mari
nosoc
supplied
##esi
##orum
rituximab
emphasizes
clostridium
unexplained
cofactor
terres
zeta
defibrill
registr
conference
143
friendly
starvation
carcass
bundles
gpi
consti
aaa
visually
mur
perturbations
belongs
##ago
##know
anaphyl
pict
##md
rhabd
##hp
passed
minimizing
parap
annually
silico
transfusions
sentinel
abr
trifluor
emergent
mcs
aiming
dmso
ultrason
##iax
##ham
latex
##uish
lich
calcitonin
abstinence
coal
locomotion
tetram
han
pcv
cavities
actu
##athyroidism
188
dentate
sensitivities
dissip
mimicking
spear
blunt
##gin
##eas
##yll
preschool
dendrites
##vef
hrp
semin
xrd
endo
ltp
pericardial
lox
orthopedic
specificities
episodic
gcs
eph
##ault
lacks
uniqu
longevity
bridging
dfs
grains
frames
probing
clonidine
consolidation
polysaccharides
##ocarb
deuter
##epr
chlamydia
142
##oluminescence
seaw
regimes
##erver
r1
guar
lambs
figure
choles
chimer
l2
transitional
burns
##cranial
alpha1
nosocomial
vii
##ocarcinoma
stabilize
galactosidase
edi
##itt
pull
screws
easier
##orial
##timulation
##acylglycerol
dropped
untrans
makers
gondii
##bu
nanofib
dichroism
##uronic
intolerance
nematode
##iatr
##cil
senior
diazepam
ideas
ensuring
slc
decid
primitive
##icked
constrained
ups
prolapse
neutralization
resilience
provinc
fluxes
unless
addi
stakeholders
##entified
orthog
haloper
emerge
germline
theophylline
vldl
vasoconstriction
recre
org
crystallization
paternal
predisposition
luteal
##rofen
isra
yolk
primate
##ogaster
anneal
quartile
hsct
##agglutinin
##atoxin
##house
optimizing
ophthalmic
bradykinin
seasons
literacy
forebrain
dispens
pam
exceed
##ulous
absorbance
lists
##ervated
coff
adenocarcinomas
multifactorial
coronal
disrupt
programming
##trate
016
inference
hydrocarbon
wc
##tebral
facilitation
peers
shoot
extrinsic
stressful
microbes
holds
prevail
genomics
165
carbonate
navigation
parity
morphometric
##rp
entering
haloperidol
##roportion
feces
##erating
lacked
haemodynamic
equine
residency
loos
##isson
##formed
deprived
prednisolone
goats
##terone
gangli
filtering
game
gliomas
##otocin
defer
##duction
partitioning
psycho
##atally
schizophrenic
emphys
esr
adiposity
shortly
141
013
##etts
##ocic
##iley
evaluates
feet
bacteremia
photosynthesis
##lp
diurnal
collision
hsc
hypothetic
immunomodulatory
##idth
sphere
glutamic
occult
rop
pedicle
dap
barr
chemoradi
prednisone
ulnar
acknow
unequ
##abain
##ipa
##pine
glycosylated
obsc
spiritual
dying
gdm
gabaergic
predisposing
regards
subscales
myx
meals
delirium
arf
gaz
autonomy
##acetyl
occupied
suv
gathered
xenograft
gln
splitting
jug
convert
##ospital
bph
acetylation
##uent
lies
##ck
chloroplast
##ocol
##02
cock
isoelectric
substituents
##con
iia
cingulate
facile
boost
psychotherapy
iat
##olipids
ouabain
##yrib
handed
##aliana
ciliary
bilaterally
##tains
nanoscale
oligosaccharides
punc
fossa
thaliana
subcortical
##observer
convenience
olds
eug
strips
scn
aneu
therapists
ascer
catch
hips
014
eosinophilic
facing
neurof
sitting
pfc
##width
anorexia
lobes
firstly
considers
bisphosph
thalamic
##cholinesterase
##ken
poultry
##uccess
##riage
vitamins
laws
adjustments
beta2
repro
pauc
linole
biocompatibility
prompted
files
sounds
ecology
##iaceae
##oxal
carries
mbp
excreted
mining
sister
rapamycin
360
320
varieties
vesicular
trimethyl
##ersed
##ipramine
149
undergraduate
##v1
n1
glucan
retur
biochemistry
##agl
wavelengths
##quilibrium
consequent
##ropr
##uccessful
harvesting
nonr
intercal
lot
gastrectomy
honey
letter
##usted
158
011
shifting
foxp3
notice
##wt
wine
hfd
solved
phone
versions
dynamical
taurine
syph
disproportion
corpor
neurogenesis
seb
##×10
swallowing
peaked
win
presently
unsuccessful
##ifies
olive
piglets
trophic
thrombolysis
vulgar
ug
1981
divertic
##efined
unpr
##usions
018
##ognitive
##atized
##si
ribonucle
##amides
rom
worked
appearing
##amphetamine
interdisciplinary
diagr
pten
writing
benchmark
savings
degrading
b3
solute
dosages
psychology
nasopharyngeal
mutagenic
supram
equil
oligomers
ncs
constipation
##vitamin
##lycaemia
##1r
##odermal
resembling
fim
##oproliferative
aneuploid
places
th17
230
brachy
##param
turned
concomitantly
algae
vulgaris
saving
predominance
homozyg
dere
gonadal
##gran
exempl
##obia
karyotype
intrahepatic
normative
encapsulation
##illing
moved
##icide
293
granulosa
##157
chemotactic
comment
mycoplas
switched
doping
##hydrop
stric
cruz
pitch
doing
1r
biases
crs
hematocrit
ingredients
constituent
##eld
metam
imposs
thousand
subpopulation
orch
##anous
##otoxins
topology
##cens
mexican
comprehension
chym
##istinguish
##imal
ihc
stems
crossing
##zo
bioassay
commission
2c
colocal
##inol
##ronate
poisson
belonged
1c
pineal
aided
##iling
streptoz
standardization
fi
octa
##ki
histi
##istering
advancement
##ried
##e1
gastritis
oedema
##udine
mpt
subl
plasmon
explants
eus
##icate
transd
tinn
immunocytochemistry
jaund
crack
gate
speaking
erectile
transcranial
readers
ancient
##wich
sulfide
voltamm
incon
preced
ink
interrup
precl
acetone
nociceptive
appendic
##iana
encounter
##imotor
alcohols
##ano
alert
kt
decarboxylase
hydrocephalus
calorimetry
##exual
ticks
spearman
melanogaster
patterning
recognised
hollow
glandular
##ara
couple
ch3
combat
father
##plicating
147
toluene
carotene
280
b12
interruption
supplemental
lasted
anastomotic
extensor
assume
chicks
grip
jur
imposed
liquids
messages
terrestrial
pm2
tinnitus
##okes
statistic
aldehyde
antagonism
quies
latencies
reoperation
inward
##eratin
grey
vh
detoxification
clav
drawing
sq
##unted
hepatectomy
foster
possessing
anap
message
##istinguishable
statement
##aminidase
annexin
sepha
ingested
##nac
incidences
bronchi
##tii
##atism
vmax
ruptured
polyuns
ctx
inbred
##87
##ario
cca
warming
reconstructions
##ocytoma
autonomous
retroperitoneal
phagocytic
μmol
catalyzes
manipulated
subspec
estrogens
sepharose
ali
erythromycin
##ng
smallest
wit
mitosis
topography
017
bevac
sophisticated
afferents
lactamase
eic
homa
forsk
gravity
uncou
gins
h4
prokary
solids
restraint
tried
bevacizumab
##kes
tms
##itoneum
esc
holding
##ulo
choosing
poses
ebp
assimil
arabin
invertebr
##onergic
gbs
terminated
gemc
152
radiolabeled
##aca
crash
hyperal
grid
comparatively
bronchoalveolar
msm
helping
nephrot
histochemical
##enicol
154
setup
rash
gamm
##oresist
##abr
pandemic
mev
cred
secretions
instructions
beet
mpo
steatosis
tsp
enkephal
##opid
arbitrary
cps
eae
##imetic
attendance
lad
panic
nucleation
japonic
atcc
erythropoietin
uroth
indistinguishable
noneth
looking
thiaz
intent
matern
epithelia
##hem
ptc
##entral
intras
transportation
ecd
gating
capsules
##2o3
##rov
##po
nonetheless
##globulin
ampicillin
coffee
favored
debrid
teen
transparent
##96
qrs
aggregated
fractionated
distraction
basolateral
lvef
intracerebral
hypop
plausible
##udi
catecholamines
hetero
immunocomprom
polyunsaturated
gemcitabine
planes
autoimmunity
multidimensional
cyclodex
valence
localize
cores
interested
desensitization
##ainees
diluted
hydroxyapatite
010
infrastructure
asbest
sensorimotor
contig
speciation
destabil
##i2
debr
paw
quit
chief
das
driver
lever
sandwich
strands
lignin
thymocytes
afforded
tacrolimus
neuropsychiatric
multimodal
swiss
##aris
mimics
##com
##vertebral
##icile
fibrotic
deliveries
destructive
standardised
prothrombin
lymphoblastic
##ogrel
##acers
dyslipidemia
narrative
##ropol
##gus
##force
cited
##ammonium
dvt
projected
##ophthal
adr
##aec
##arate
shrink
##tisone
px
##othiaz
flowering
##endicular
hyperinsulin
caudate
cotrans
cbt
ltd
bmt
multifunctional
forskolin
utero
eif
beat
pss
chew
serotonergic
equipped
chemotaxis
antinocic
cytometric
neurosci
biosensor
antagonistic
##ublic
##olinium
##imab
##osphere
inducer
barley
cholera
steep
vigorous
mesop
klebs
neurogenic
advancing
bari
myof
##itinib
constituted
folic
##here
##oge
overnight
##opent
arthroscopic
cocc
atri
inspection
##ovol
schedules
aed
hypothetical
cleaning
synchronization
fails
capsular
lex
uveitis
cope
ejac
fathers
##94
coatings
neglect
perpendicular
personalized
intrathecal
telem
##acted
hydrolys
polych
156
alkaloids
flo
nonm
vegetative
lifespan
hydrodynamic
embryogenesis
modulator
##enedi
amyloidosis
##itates
prerequisite
interconn
monos
silk
##tention
vasodilation
prion
##elioma
h7
##astin
wbc
erp
nigra
collections
dentists
buffered
multifocal
192
etiological
modulators
##imburs
devoid
upr
ewes
##acia
bupivacaine
eukaryotes
roughness
otitis
##elity
##iximab
haart
pcbs
##edicine
aun
costly
##emoral
covers
##ocyanate
eliminating
thyroxine
operon
##oxazole
hepatoma
v1
shedding
24h
electrocardiogram
book
neighbour
republic
friction
wol
##oliosis
advantageous
occupation
##enium
vicinity
microglial
270
tu
digestib
##oventricular
blacks
hydrophob
pyrrol
##5a
##olor
predictable
##odom
echin
##oves
repeatability
oat
##estin
kpa
##ij
reimburs
##ecu
recon
semiconductor
##vert
flora
intrig
ferric
coma
##oxins
discs
tunel
celiac
##inescent
maneu
impossible
##inone
streptozotocin
##ulinum
tunn
secrete
going
pictures
analyte
##angu
##ardiac
cytokeratin
twist
mutational
dissociated
worker
sic
folds
trapped
apob
surrounded
##ael
alleviate
phosphodiesterase
inspired
straw
##adine
layered
bz
meiotic
c3h
nh4
neovascularization
gfap
wavegu
campyl
ets
resections
pcna
till
damp
visualize
licens
##agas
repaired
immersion
##uzumab
##oplasma
pointed
t2d
##onomically
##entful
##apeptide
counselling
advis
reconstructive
restrictions
dwelling
originate
##eresis
mist
##aenoic
##fraction
syphilis
allografts
syncy
sts
imt
tuned
chambers
uneventful
store
herbiv
hens
evolve
##etent
palp
homo
klebsiella
adjunctive
immunocompromised
difficile
sativ
##algia
##olia
edges
nationally
coum
tricuspid
modular
sequentially
redistribution
ovid
epstein
micropartic
##trypt
##osteric
neb
sigmoid
unidentified
labile
protons
receptive
price
##azepine
msec
huge
env
drg
workload
antiproliferative
augment
reconstitution
pufa
instant
##1a1
pertin
##eit
tensor
##class
pharyngeal
cec
trainees
stic
replacing
surfactants
##mer
cts
formaldehyde
restorations
##phenol
unpreced
nanor
oblique
isotherm
##idis
##drug
mosquitoes
exacerbations
clopid
scid
contrad
voxel
ehr
2r
ua
ec50
hk
cnt
saw
stz
apoa
manus
nep
harvest
guiding
filamentous
unprecedented
outper
ascertained
purkin
udp
elucidation
sixth
aper
##ineral
amphoter
clopidogrel
supervision
##opolym
frameworks
synthes
activators
analyzer
intraepithelial
##bt
purkinje
qds
microbiome
biophysical
elsew
pim
chrys
gle
campylobacter
compressive
elsewhere
##wa
##ethanolamine
purine
ending
companies
productive
interneurons
effectors
integrative
pbmcs
preex
immunohistochemically
##ira
##ilton
##emide
frailty
encouraged
anticonv
osmol
warning
dissected
straightforward
peroxisome
##oct
##astically
filtered
glomerulonephritis
##adone
thyrot
elastase
##nem
cxcr4
##oscope
isoflurane
underestimated
hunting
##rogl
cruzi
ribosome
occlusal
##iabetic
coenzyme
feeling
succinate
torsion
subacute
legislation
##oneg
strategic
uvb
##itants
atlantic
spong
ventilated
mug
infrequent
leukotri
##issive
infan
mesang
eta
vehicles
a3
##oprote
##level
hydroxylation
orthogonal
jaundice
thy
biodiversity
151
listed
bariatric
bos
##ycle
mif
##ylyl
gib
conjunctival
wheel
ulceration
depress
260
##agues
nonsm
shut
trachea
pharmacology
oligomer
pole
##had
##91
##iva
luminescence
ensemble
conting
mao
moments
imaged
resemble
danish
hbe
adhesions
spirom
hydroxide
rick
resum
deph
opinions
collagenase
plga
dss
intriguing
##562
##amphenicol
##rical
flexor
neurodegeneration
##graphic
synt
##loxacin
manuscrip
pneumon
hamilton
trimeth
gata
##etaxel
confusion
emphysema
ao
##tizing
microvess
##pg
##tilled
confirmatory
dlb
##azepam
##epile
ascorbate
erythema
trout
penicill
iol
##osecond
h1n1
flood
##uresis
arrival
tunable
reorganization
##tl
docetaxel
porphyrin
wedge
norway
cyp2c
cohes
consecu
appetite
safer
iterative
pover
computation
occluded
##emp
abiotic
hyperpar
bioreact
asn
polyd
##opsin
##ason
serous
immunoglobulins
ye
##tructured
poverty
ontario
gum
##plo
ara
μl
opens
jugular
##bing
157
tha
diode
ccs
genotoxic
immunogenic
brca1
methadone
mant
scatter
fvi
ionizing
smc
ventilator
dx
mannitol
microarrays
##emias
ku
exchang
devast
rostral
pher
benzodiazepine
bread
##bg
compensate
falling
cuc
mcl
mm2
##asth
emitting
willingness
ovx
qrt
consecutively
abrupt
metabolized
l3
sickness
iiia
oxalate
unre
igg1
unfolding
ellip
transformations
atrioventricular
ceramide
ended
ferment
ards
substantia
##his
reasoning
ribose
mgl
photocatalytic
exit
conferred
##ko
albeit
glycolysis
lbp
##thrombotic
##arith
scoliosis
750
##itely
reaches
rbcs
pigmented
hypn
myrist
##yridine
fidelity
oroph
##obiotic
##atheter
tka
inotropic
tracing
mastectomy
##bens
utilizes
anhydr
lie
acted
coming
approached
ori
worth
slides
##juana
granulomatous
##atility
guarant
reinforced
harboring
reticular
married
reflectance
granulocytes
paralleled
apl
##rosy
vasoactive
pertinent
##b3
eluted
corros
##uce
##faction
macroc
shig
retarded
motivated
macromolecules
philos
digested
1500
tactile
##olymph
paroxys
export
energetic
##otherm
defence
##obutyric
crim
caesarean
portable
biogenesis
install
177
unr
antagonized
editing
fes
phenyle
weather
richness
uniquely
##ellate
heroin
healed
##urition
metron
ancestral
sutures
##hc
##glucose
bear
1979
isotopic
thromboembolic
spikes
hemolysis
neglected
cz
##aturation
verification
ascribed
infiltrate
phle
pill
##airs
coordinates
##omogene
pluripotent
hidden
bromo
colleagues
overlo
accumbens
mct
destroy
##df
acetabular
denaturation
migratory
agriculture
phenylephrine
revolution
workshop
restrictive
investment
denervation
glucopyran
acetylcholinesterase
##idus
midazolam
centrom
polymorphonuclear
pag
incidental
sln
appoint
begins
lytic
##ifers
abrogated
temporally
advent
gauge
chloramphenicol
constriction
authentic
chemilum
conflu
retinol
convergent
rct
spore
intract
hypercholesterolemia
inclusions
aav
cct
infest
implication
dol
ovariectomized
neurite
cta
sct
##ankton
begun
prostaglandins
damaging
##olated
helices
tends
##odeoxy
debridement
cyclohex
vibrio
elasticity
motions
pairing
epiph
tender
etop
blindness
acne
35s
arsen
topois
oxides
##estock
tann
debris
narrowing
##well
outlines
doubling
spiked
mitogenic
pherom
microstructure
thromboxane
livestock
appendicitis
p27
##onad
deformities
logarith
##icine
relates
harmon
empty
##life
asbestos
supramolecular
##achol
coexistence
##oem
disaster
cd2
enteral
pea
labels
notes
mmps
wky
hallmark
##odia
oscillatory
census
ordering
##rna
glycosamin
##oviruses
supra
##icially
lessons
irs
##ozapine
sonographic
suck
##aminophen
disparity
caco
ais
graz
biol
answered
analgesics
pie
##odeox
##ubated
174
no2
etoposide
breeds
detr
yag
anticonvuls
anisotropic
averaging
valvular
liposome
##att
enthal
anger
euthan
consultations
marijuana
tonsill
anthrac
cruciate
washout
lysosomes
toxicological
glcnac
infectivity
gaze
declining
auxin
necrotizing
wiley
amphotericin
syring
##align
paradig
business
stemi
discer
disciplines
159
bradyc
coexp
nonf
nanowires
compulsive
intravitre
interven
lec
##thi
awake
contrasting
205
technically
implantable
paradigms
halluc
virgin
oscillation
o157
##tian
hev
eru
intranasal
##yne
chir
computing
binge
checked
fx
##april
explicitly
visu
radionuclide
##noea
chorionic
dies
drops
leprosy
hazardous
thalassemia
mics
bite
roughly
controll
##arring
hung
bit
orientations
hek
##inesia
serocon
transposition
##oselectivity
consor
sialic
k562
epig
##olus
##ovsk
##pic
explos
##ulph
##apopt
antidi
lining
compatibility
##b4
comes
enorm
019
spss
remodelling
herpesvirus
scs
##aked
xenografts
multilevel
missense
cdnas
pc12
untranslated
remainder
mitigate
operatively
slit
jet
aromatase
##opeptidase
abscesses
renewal
bomb
##yelination
metropol
fluctuation
catabolism
chondro
porosity
rods
##uoden
insem
spatiotemporal
mismat
b7
thousands
##dehydes
##±2
##igibility
intractable
methyltransferase
esterase
interpreting
##sulf
##through
influenzae
opiate
fe3
templates
preconditioning
srs
plug
thp
repressor
neurodevelopmental
hns
ipv
mek
##uprofen
##odipine
thail
subscale
##tegration
ampa
fingers
spermatogenesis
opened
culturally
devastating
##arone
fulfilled
devised
governing
epist
drb1
##ocks
drift
caloric
photographs
thailand
##76
obliter
antipsychotics
whitney
paucity
gmp
##isters
##retin
kinematics
##uridine
sibling
invariant
##qi
craniofacial
##oxan
pct
catast
innovation
biodegradable
##orphine
ameliorated
rew
##nish
midbrain
##optera
hms
sewage
pra
stereotactic
##arby
occasional
carbachol
confers
clozapine
rendered
pms
amphiph
##minth
naphthal
injecting
##ivocal
unal
dermis
##iens
relapses
##light
182
assemblies
basin
##yb
pathogenetic
row
ud
nephritis
##gesia
##heal
atresia
linguistic
ordinary
semiqu
no3
acetaminophen
photoreceptor
divalent
hyperparathyroidism
alcoholism
reproduce
stratum
185
linoleic
##aned
##othane
chloroform
reti
ureth
##3b
##ocyanin
genotypic
trisomy
think
adrenaline
dams
initio
##enib
endors
disclosure
compensated
rabies
##clusive
reu
ams
mesangial
shot
##orus
##oplasia
lu
##arrhythmic
##74
pharmacotherapy
crosslink
cylindrical
elongated
boron
##erals
pressor
tregs
##tail
deployment
warrant
ibuprofen
creates
bare
owners
##osulf
serov
eyelid
electrically
##aventricular
alkali
transfers
packaging
strikingly
hydrolase
delineate
##net
scanned
annotation
nip
##rophosph
philosoph
masked
captopril
botulinum
##entions
##afluor
nach
pq
supposed
tcp
solubilized
bird
cephalospor
authorities
organisation
cyanide
distorted
quater
mount
fvc
memories
washed
fad
fistulas
thoroughly
nanomaterials
inflamed
resembles
goat
##phase
relapsing
assurance
ria
antiepile
brachytherapy
flower
societies
unaltered
maxill
cms
heads
eligibility
insert
ventricul
acknowled
discriminating
council
enantiomers
abstr
mj
invited
halothane
argued
##utation
preventable
polyst
superimp
bridges
robot
p65
pda
reader
##2c
myopia
##orphic
225
popl
dipl
capsid
##kal
sertoli
egfp
cytologic
##mu
crh
##istan
contraception
crossed
randomization
##phos
micronucle
##obium
##ilin
junctional
##lofen
162
impairs
dimeric
vor
aggress
##93
doll
bla
gaining
##sd
##atre
ultrastructure
xi
judgments
nitroph
factorial
ral
minus
enkephalin
##roma
##ronch
annealing
##eller
splenectomy
xl
178
##onge
##recogn
transduced
checkpoint
priorities
empower
##olase
leishmaniasis
triton
positional
##oris
arrested
listeria
gadolinium
adipocyte
##kinase
crystallographic
##oned
neurole
eruption
prur
breaking
lethality
creb
##omeres
##peridone
shrinkage
##elic
mmc
microf
##plas
puer
anatom
lipophilic
hemostasis
4th
nonun
digoxin
##thermal
tether
##eastern
rhabdomy
siv
eluting
##osomiasis
dtpa
seawater
##bur
nigeria
mediation
##ogluc
fluc
introduces
immortal
##f4
neurocognitive
acidification
hydrophobicity
streptomyces
bioactivity
##orth
inhomogene
sarcomas
paramagnetic
spacing
immunocytochemical
comprehens
drinkers
##oinos
pyrimidine
astrocyt
##ospasm
hampered
photonic
saph
you
atg
jejunum
photodynamic
statements
ventricles
occlusive
homologue
ornith
specification
chord
listen
residing
districts
simulating
32p
##trated
dialys
##iculus
him
lun
worms
subsp
ternary
denitr
cd13
lati
tetanus
bandwidth
prodrug
organis
educators
situated
melanomas
genis
symmetrical
##onates
preparing
fna
pulsatile
bifurcation
ranked
##legia
objectively
cubic
oxygenase
refinement
##akary
cream
degrade
territory
##ingly
execution
syncope
zoon
hairpin
intima
g6
##ispens
hyaluron
historically
1978
diastere
adequacy
numerically
soleus
anxi
##mitters
##roscopically
vdr
##olars
paroxysmal
shares
proceeds
chloroquine
environmentally
oesophag
##ometrically
lying
etiologies
doubled
164
bilayers
cpap
parp
drastically
reactiv
fluoxetine
##lasia
##ini
groove
allosteric
lentiv
l5
nct0
etiologic
dysm
permeable
##nc
polycystic
##iant
##ineural
heated
banding
abnorm
melanin
osteoclasts
ffa
trin
neurotransmission
cadaveric
holes
backgrounds
farmers
calibrated
strengthening
push
dilem
ems
lamellar
radiosens
##ami
impulse
166
##idene
reproduced
whee
##yryl
195
tio
monoph
##oplatin
reared
oestrogen
superiority
nondiabetic
coarse
immigrants
twitch
placing
evaporation
manipulations
##entanil
##ocutaneous
hydroper
streptococci
flowers
##ocyclic
##eprazole
burnout
indispens
evening
##uro
##aterial
##yrid
repressed
cmr
sett
bean
evac
additives
reviewing
outdoor
##methyl
reflexes
aminoglyc
quadru
mycoplasma
cloud
connecting
choroid
paracrine
##onation
canals
scap
pedig
answers
iatrogenic
##ocent
michael
substanti
shallow
engraft
probabil
autoreg
ferm
shaping
fis
##idinium
imrt
participates
hundreds
adri
sga
infertile
infantile
cycloh
spheres
concan
monoxide
5th
herd
endonuclease
doi
##lysis
amenable
valpro
amphib
0005
glomeruli
264
mimicked
symp
synapse
pest
##aturity
multist
##apoptotic
nmd
trough
cftr
##olab
##allic
reviewers
probabilistic
expectation
visited
uncertainties
heterozygosity
muller
##asin
anthropogenic
e3
##phi
plei
##ropin
##kb
sp1
completing
dsc
elementary
hydrolyzed
dephosph
counterpart
mortem
ppd
167
##orphyrin
##atine
colch
judgment
transgen
tnfalpha
cron
po2
##ofuran
1975
pyrophosph
titres
androst
equivalents
metalloproteinases
dimeth
clotting
myofibrob
migrate
ideation
aza
##fection
##berry
nz
interrupted
pbl
cnv
spa
cic
proposal
confron
polystyrene
phosphoryl
##timulated
dinit
##omatis
incorporates
interests
csp
clinicopathologic
scene
steric
##lys
imperative
nanoc
failing
committed
exciting
lpa
oleic
mediastin
workforce
dwi
submucosal
##yron
##rals
axes
secure
hed
##alis
##onegative
concre
##atergic
seeded
gallst
##anat
##yseal
igg4
phylogeny
mounted
obstacles
tendons
maintains
rigidity
simvastatin
##azosin
said
carbap
dividing
descriptors
##book
suppl
stacking
g3
witness
geometries
##187
##opreval
sponge
##86
pleth
##ja
marginally
asparag
justified
diphosphate
synchronized
##anide
lond
ameliorate
eclam
syngene
smoked
##ishment
mts
trophoblast
##urethral
monoamine
conductive
seropreval
abnormally
mobil
dish
##ximide
methylp
ch2
hook
metropolitan
cyclodextrin
ecmo
song
reprogramm
##oretin
worst
genistein
wards
kar
handle
hypoplasia
acros
##icides
marketing
granuloma
mycobacterial
##ima
163
unmet
arose
herds
raf
reacting
motivational
##omatic
strengthen
##hu
##arenal
##adec
barb
restoring
occupancy
blastocyst
##avalin
quadric
patellar
anchored
tcm
##vian
glutamyl
lect
traction
inacc
climatic
##ocystis
##azo
##transferases
##lab
##inic
##ympath
subdivid
speeds
sterol
bleomycin
o3
oligo
sevo
biomaterials
deals
i2
##aulic
drawback
6j
pharmaceuticals
scavenger
megakary
thematic
bib
disag
chlorine
acinar
fove
sinusoidal
syngeneic
##orem
##p4
gerd
neurotoxic
readings
##entistry
##ximal
swabs
phenotyp
172
##x10
h⋯o
eradic
169
##acea
feat
premenopausal
cd16
violent
disabled
abstracts
introns
topoisomerase
survivin
unrespons
acetyltransferase
chaperone
carboplatin
forests
minerals
correspondence
retroviral
dispersive
osteomyelitis
##oly
hhv
glycosyl
unpred
rhamn
empirically
subtraction
hong
nyst
bioch
stricture
adrenoceptors
accred
##esp
synergistically
larynx
disposal
thc
vacuoles
vasodilator
mildly
nest
quadrup
catalyze
addic
ei
glutamatergic
proteoglycan
intimal
demanding
##imilar
perfluor
myeloperoxidase
intravitreal
eclampsia
bead
5d
concanavalin
retrovirus
##ospecific
##oxylin
viet
deacet
trachomatis
specially
dangerous
imatinib
mth
acp
##arians
physics
icr
cyclosporin
##terolateral
##inus
lym
##burg
androgens
dithi
neurotransmitters
212
resembled
monoc
ortholog
##sr
gpa
manually
infect
adds
dentistry
oryz
##uitr
perivascular
reuptake
lem
##tryptamine
covariance
xanthine
##otonic
##inia
ken
adver
##amers
butyrate
steroidal
nanocrystals
##onasal
photoelectron
rectus
corrosion
cardiology
rhythmic
methacrylate
##l2
##ocene
epicardial
glycans
##ovalent
chemopre
##cys
limbic
decided
consul
peptic
##anthine
instillation
##oflav
nis
suspicious
##uctal
176
brdu
elucidating
cavernous
constraint
civil
161
nephrotic
wearing
brack
##thesis
intercourse
orthotopic
blo
fragile
niger
pgf2
quiescent
msp
lpl
contradict
perceive
lasers
funded
lactating
appraisal
##athic
supervised
cryo
uti
pertaining
pcd
precipitated
dab
birthweight
evaluable
counted
##anthin
copolymers
pph
preincubation
scarring
referrals
registries
##agger
integrins
retraction
alpha2
bedside
motile
breakthrough
##operiod
##ymic
ionophore
##kd
##ocalcin
chemoat
glia
polycyclic
yeasts
imagery
pean
dissatis
homeostatic
##uses
thoracotomy
bradycardia
xenobiotic
##imine
bivariate
antiepileptic
informal
london
pubertal
deemed
eia
saphen
barium
underp
##c3
tachy
bun
##400
analysing
amy
dict
indispensable
024
longest
##nv
fertile
preh
snail
triti
pei
microcirculation
intracl
sevoflurane
##ocap
028
2d3
moss
reserved
extrusion
metronidazole
folded
bcs
engaging
ranking
colchicine
irritation
dereg
hardness
biodegradation
##iteal
preexisting
bon
urothelial
cancerous
guanosine
jejunal
heparan
albino
##cus
186
##atars
##ava
##etron
adl
183
##ifera
hsp90
contributor
256
morphogenetic
##orectal
chondroitin
sv40
##odys
cddp
cytosine
##urred
##thra
arrangements
nematodes
##endoth
artifact
flour
asph
brass
practically
##lofenac
electrocardiographic
resonant
uf
appreciable
##ogue
amoxic
intentions
reimbursement
motoneurons
weighing
lacz
paran
portug
prison
denmark
##orrhiz
rotating
lichen
1960
##ieu
##82
germinal
rescued
mtb
intimate
microparticles
complaint
substituent
mont
vpa
wax
##odynam
serologic
atra
lysates
refers
doubt
k1
intraventricular
##idate
##ip1
cryopreservation
mucinous
gambling
enormous
graduate
antiarrhythmic
gastroc
autoradiography
##t2
macrol
##otin
dysk
seroprevalence
##ithiasis
##ancing
suction
atrophic
propionate
021
alex
sequestration
moll
vb
hyperalgesia
neurosurgical
subfamily
prism
unrecogn
interior
secondly
fitc
alarm
181
023
acanth
carn
pyel
gpcr
anchor
##otracheal
insertions
engraftment
examin
infiltrates
reconstruct
mucous
autocrine
lncrnas
burd
bovis
insult
triage
ppb
##tc
metaplasia
slowing
photoperiod
biop
pairwise
sof
222
##iters
##ado
unsu
kain
rankl
tnm
203
leach
morphologies
outward
superconduc
municipal
ugt
##μm
pis
try
##olded
pectin
pathologists
arterioles
fmd
carcinogen
##ugg
mutans
sleepiness
enfor
commonest
gluten
carpal
027
hyperlipidemia
gpr
deer
antim
dhea
macromolecular
industries
unamb
tcdd
pixel
##articular
mole
dsa
interobserver
inoculum
fmol
tlr2
oestradiol
##89
xr
##ytoin
p2x
inconclusive
##apsed
persists
##romatic
overlooked
4d
##abdominal
traps
mm3
formulas
204
centrally
depths
##idation
pla2
israel
##oplankton
cortices
lor
luteinizing
expense
##itidis
flavonoid
complexation
unpredict
##thoracic
lipoxygenase
##brand
bursts
tmj
##igo
exosomes
bam
##arine
chori
aldehydes
exactly
dystonia
h5
thyroidectomy
printed
warrants
azo
tad
##opeptide
subdivided
##olis
headaches
speculate
vietnam
202
burk
##gut
mcc
ctc
##uated
pneumothorax
helminth
hydraulic
foetal
transcatheter
billion
lectins
biocomp
attenuates
##ympathetic
zirc
diuretic
trichlor
dba
unambiguous
administering
retaining
##125
translate
ancest
transmitter
singleton
tic
airborne
glycan
suggestion
##mas
elite
methamphetamine
minimized
##84
gleason
##icated
principally
vn
remnant
odd
fasted
epoxy
unsatis
##ille
##ellosis
##word
strokes
thro
needles
hyperthyroidism
ivig
rubber
ovalbumin
ator
foraging
qualified
noncoding
lose
fun
##enh
oscc
##omn
sinuses
thrombolytic
synergy
encounters
codons
##tons
imprinted
##adel
serogroup
##brt
##ticism
succe
pz
glucosidase
ultrafil
attract
unt
dysfunctional
rumen
##rosine
urtic
osteoporotic
inequalities
##rein
171
hyperv
skew
gpx
interacted
regressions
cbct
enterococcus
173
passing
transection
nowad
nonster
halogen
etching
diversification
criminal
mite
##asant
indol
visco
nowadays
##epines
blunted
##uitry
migrating
unem
gastroesophageal
escc
liposomal
##ifiers
teacher
vertebrae
##mr
##acillin
bold
cannabinoid
advertis
##icit
accidental
##entin
morbidities
amplic
incidents
exertion
educated
##enzymes
##field
efferent
denture
##prof
dre
reasonably
leaflet
conflicts
##acies
##gamma
proceed
quadriceps
pathologically
##eve
malays
thermo
##oxamine
osteocalcin
rotator
competency
##avirin
lax
##iensis
##atech
atlas
disequilibrium
paths
exceptional
##eximide
quart
colorimetric
acrylic
##ecoxib
exocytosis
ptp
##ofil
neurophysiological
bever
closing
volunteer
salient
psycin
steadily
psycinfo
ossification
plastid
##uman
phenanth
arguments
mcr
foramen
company
rfa
yog
1976
##regn
neonate
psoriatic
##robenz
##utions
pta
cycloheximide
abor
##ostat
concordant
pointing
unified
ovine
isopropyl
##elected
gdp
##icc
cd20
norw
hatching
threefold
cres
myogenic
##olones
cancell
predator
greenhouse
##like
206
chewing
wells
quaternary
tank
inqu
##ilance
1977
algal
##etra
ecz
finland
##opamine
socially
hardware
dar
hepatotoxicity
payment
osseous
ready
incompletely
membranous
fishes
gun
hscs
fort
immunocompetent
pigmentation
adriamycin
leader
tremend
##ethylation
cascades
polyphenols
msh
ridge
##oprotection
atorvastatin
encompassing
diclofenac
neurofib
panc
questioned
blank
022
emphasizing
##osurgery
tags
waveform
##92
exacerbated
026
##ydig
sephad
diaphragmatic
##onomical
staged
oxidizing
enucle
##bia
classifications
faecalis
l4
sephadex
graphical
##etary
duty
biphenyl
exhaustion
fluoroquin
##aki
##itories
intraclass
pellets
##argin
##omycosis
mans
##cing
amoxicillin
gynecologic
uncovered
##oca
opn
bark
fiss
##omandibular
uremic
nuclease
nearby
reductive
exploit
sas
wilc
ribavirin
##ticle
snap
combinator
svr
##gc
staphylococcal
heritability
primord
representatives
aminobutyric
dnase
##alg
stature
compartmental
cbd
gill
eosinophilia
chemoattract
invasiveness
turk
fibros
##oencephal
publicly
##vd
mong
mra
##holder
apple
trypanosoma
##olysin
leaching
saudi
overproduc
##electronic
cronbach
clues
calcified
therapist
got
bout
kall
scars
##ql
condyl
fusarium
attainment
cassette
quinone
dext
184
evidences
aliph
leydig
saphenous
vice
msi
absorpti
187
multicent
decompens
pepsin
kong
condensed
mesoporous
##odopa
kits
markov
reversibly
##afenib
leptosp
##alline
mush
agglutination
isopren
##othing
phenobarbital
homeless
nts
##fly
bubble
interpretations
##oinositi
##arity
observing
lymphadenopathy
##awa
##etization
laun
nag
societal
separating
detectors
##astig
mountain
braf
libitum
cd28
aeg
risky
constantly
letters
pumps
##plicates
recap
interrel
transaminase
##opathological
##antit
assemble
kp
reabsorption
affiliated
mycobacteria
histomorph
operators
##axin
zoster
cfs
kel
##epid
cpa
kat
##acrimal
perovsk
classifier
proliferator
probnp
cmc
culturing
economically
sarcoplas
arres
counties
disinfection
serr
expenditures
pcc
5000
infliximab
##oco
lobectomy
binocular
##formation
hcmv
beverages
##ulline
associates
##otrypsin
haematological
deoxyrib
purely
cheese
ban
elastin
##ogenin
backward
egcg
psychiatr
hsd
thermally
disrupting
##alo
dural
nervosa
fermented
bacilli
calpain
anesthetics
sers
##occl
etoh
208
eccentric
ornithine
hyperg
psychomotor
ribosomes
sacral
035
latit
dysfunctions
sectors
##oped
pericard
entail
edition
tetrah
##iparous
constitution
anticoagulants
216
##oresp
##itives
hindlim
ruled
discussing
dorm
holistic
gastrocnem
aliphatic
emitted
recreational
compute
antih
wille
pls
##aneurys
endocrin
##ofemoral
manuscript
##ellae
sharply
chemiluminescence
weal
##idomide
voiding
ultrasonographic
obsessive
##appab
##ronchial
##eptin
hmgb1
lakes
shaft
ketone
ambiguous
tas
genesis
##fin
clay
wel
lesioned
##mn
vincr
consortium
simplicity
coral
absorptiometry
bacteriophage
##osterol
mesothelioma
damages
voltammetry
gout
##yelin
exagger
p300
3000
seriously
ankyl
gynaec
chop
followup
carbamazepine
urgently
certified
##imethyl
lingual
carboxylate
masking
thior
saharan
330
recognizes
kap
##anda
contaminant
##agens
##rows
dnas
outlet
##oreflex
impulsivity
withdrawn
b16
colloid
inev
producers
##ubstituted
tca
spo
##anum
worsened
##yline
bloodstream
##tigo
##adap
thoughts
immunophen
punct
annular
##aggreg
contracep
inhabitants
rifampicin
provinces
tuberculous
fluconazole
##ocus
correlating
##arboxylic
defines
osteogenesis
digestibility
commens
insecticide
##ecia
##anil
##endym
spectrometric
##aired
academ
abdom
##edullary
runs
wilcoxon
fascia
lengthening
801
##oo
heightened
combinatorial
whenever
anxious
ssp
graves
dti
deprot
poland
provoked
posttreatment
##ynch
combustion
abi
ada
levodopa
endotracheal
electrolytes
modifiable
maximally
galectin
distinctly
hexagonal
0002
throat
cid
lanth
multicentre
zol
outputs
ocul
proxy
lub
##rb
extravas
pediatr
parasympathetic
##acetamol
vv
ortho
intu
##oviral
partnership
contraceptives
xylose
pect
stains
fibrinolytic
hither
gastrocnemius
rins
willebrand
vincristine
encl
238
categorical
wise
179
214
loh
gil
styles
resolving
semiquantit
sustainability
##adish
franc
governed
shortage
eut
##wi
##adesh
##analysis
hitherto
circuitry
versa
##ults
##oxidation
##asion
genders
unemploy
pollutant
isotropic
209
necrops
cryptospor
leis
loosening
fellows
##ocyanine
bidirectional
associative
arthrop
##artum
unmod
stations
##ald
antimicrobials
hexane
seronegative
practicing
##uretics
meiosis
##osting
adopting
texas
nephrotoxicity
pine
restorative
pale
##tz
193
tetrachlor
redundant
sustaining
furos
coincided
landmarks
dece
##tistic
tryptic
##ussion
##oconjug
vals
biotrans
ontology
##agglutination
##iodarone
generator
nash
vitrectomy
neuroscience
hypon
handic
oncological
glycolytic
hypertonic
dimerization
identifiable
exceeds
physiotherapy
regenerated
##onide
manufacturers
devoted
ligase
virological
rumin
artem
photochemical
##whel
hps
attraction
##west
##actam
psp
##trained
pheochrom
relatedness
feline
grp
benzodiazepines
complained
schistosomiasis
sio2
##osyltransferase
hnscc
russ
carotenoids
lymphadenectomy
ultraf
generalization
##aro
click
splenocytes
##yal
spasm
chelating
nearest
##ariae
##side
rainfall
sst
##ateness
clp
nong
hypercap
anaplastic
##f3
furosemide
microch
tlc
diamond
##obenzene
chose
intervertebral
airflow
proliferate
pupil
##une
eventual
phonological
##osperm
fle
synucle
permeabil
favorably
predispose
discordant
tma
caucasians
noradrenergic
reacts
drinks
##trac
herniation
official
overwhel
mmse
leisure
citiz
##kg
##ophor
metastas
horser
##ophthalm
pige
referring
prepro
streams
returning
##so4
wait
och
concrete
heifers
microfil
diuretics
coexisting
##ume
esbl
carriage
toxoplasma
circumferential
raph
transthoracic
##odynamically
spines
##bra
homologues
vulv
compressed
rag
bifid
overdose
##osc
cleared
##aut
heterosexual
##otecan
nicotinamide
colonized
##erh
##ref
cyclization
internalized
beck
closest
233
magnetization
broken
implicate
sarcoplasmic
compete
##pregn
facet
simulator
##83
geometrical
p2y
horseradish
pmma
batteries
harbor
serology
##ophytes
##obacterial
huvecs
##umann
carcinogens
impregn
preferable
complementation
dcm
##omon
1990s
aperture
cardior
215
paracetamol
empathy
concentric
outstanding
itp
transdermal
##eri
gard
dosimetry
intramedullary
myristate
regenerating
207
contrasts
##oplasmosis
forec
myopathy
refuge
g4
femt
attribute
hypotensive
barc
bq
nations
disadvantage
annotated
achieves
imidazole
navig
gingivalis
crosslinking
t1d
noncom
diol
##fas
##una
223
urethra
##ofer
hindered
htt
resonances
fluoroscopy
cim
enum
hyaluronic
##oxycycl
phenytoin
realize
##erae
##urized
mptp
sleeping
epididymal
persistently
cdi
synuclein
##ostom
##alcoh
discipline
osmolality
linkages
contacted
toxicology
derivatization
harbour
##ometers
tubal
graduates
footpr
john
ost
##lt
##lyp
biomolecules
tram
##ubertal
toe
opposing
hbc
##iferous
intratum
natal
##oprol
tnfα
blots
cooking
clades
cep
receipt
diversion
##ophene
antral
antithrombin
request
reprogramming
awa
##ohem
cyn
gastroenteritis
glycosides
##ikrein
##101
1200
performs
increments
bell
17beta
##annab
221
anesthesi
scrap
##took
skilled
stoichiometry
##ubercul
##bp1
tunneling
locked
unsatisfactory
a23
fic
css
dynamically
aberration
viscoelastic
308
amplify
isoflav
antithrombotic
##urus
shelf
bronchoscopy
expresses
obstetrics
entrap
lncrna
adoptive
benth
snake
probiotics
agitation
n2o
slopes
wires
##adenosine
comprehensively
##avian
h3k
vire
migrated
myocarditis
211
housed
hyperpolar
inr
unrecognized
pigments
bronchodil
##130
##eb
340
cd11b
##oeba
nitropr
hydatid
pvp
paradoxical
##ap1
##othyron
##anter
nhe
##etrically
##aka
##entation
daughter
550
correcting
##romatosis
mars
undertook
mitomycin
##pm
synthesizing
ces
nitropruss
cu2
##encephalic
diminish
tables
##d6
varicella
bronchitis
##len
lexical
palmitate
aborig
durable
##ochrome
muss
remediation
microscopically
nsaid
rsd
##iceal
dizz
asympt
10th
meetings
peanut
conduit
illicit
pparg
##ploys
chimpan
amiodarone
lycop
ligaments
losartan
ruth
rearing
nonsteroidal
ambly
qd
glutar
borrel
pva
kernel
remember
approaching
stir
shrimp
amaz
assesses
##odine
windows
broiler
sulfon
nitroprusside
centi
obscure
##avers
##ounder
##ogle
burning
constructing
##oride
qualities
leukotriene
slowed
polluted
ril
fret
institutes
194
hbeag
cart
southeast
polysomn
dmd
##olide
vcam
hematoxylin
artificially
v2
##implantation
##essional
prospects
ttp
alop
evans
stainless
seldom
uh
nanocomposite
phleb
terminology
##ott
##acyclin
##ibrate
##orthy
189
inert
ccr5
stenoses
##imolar
##okine
euro
##atases
hydrothermal
hardly
isr
##users
priori
wales
transs
##ystem
lux
buck
infecting
lhrh
##gest
290
##etom
rendering
tape
##cortisone
##hai
autoantibody
1974
##onary
enterobacteriaceae
029
admix
##yelinating
glas
communicate
functionalization
rater
metaphase
yrs
phages
sweat
##dg
photod
relational
##erged
centred
requested
orific
tack
191
unip
anastomoses
debil
226
032
hierarchy
diph
alleviated
ivc
ricketts
nitrous
nh3
##anting
pheromone
autum
gan
##ologr
##timulatory
##ern
macaques
##ingual
economical
oncogenes
ca3
emulsions
keratinocyte
a1c
extrahepatic
infin
membered
dissipation
ez
glycation
phytochemical
h2s
certif
##tigmine
thumb
##enafil
mentally
##icals
distilled
beij
electrop
discern
economy
nets
020
pitfall
belg
anticonvulsant
##ensives
##agers
##ultural
##istin
##ounted
discriminative
##±3
carol
draining
accommodate
unmodified
competencies
##itrate
employs
pyridyl
bioreactor
degran
momentum
d4
argen
unusually
starts
roman
metabolically
lastly
##cv
effusions
fossil
##ecd
##ectants
advocated
rounds
contradictory
carers
microelectro
continuation
##bank
##itative
schiff
dissimilar
##han
looked
optimally
delineated
cime
zr
shad
metab
assimilation
##lich
meq
rgd
palladium
solv
preca
basilar
squared
microdialysis
glucuronide
lis
meningiomas
muscul
apr
nonsignificant
drives
psychiatrists
##vinyl
cones
chair
trehal
fuller
##plate
myd
##accum
nanocomposites
prohib
debated
incisors
unpredictable
stance
milieu
##trig
##uel
##ein
##erally
vad
ercp
antioxidative
capacitance
urod
##vic
subclavian
micronutr
unresolved
##omedial
optically
congruent
##apsular
cardiomyocyte
##olymer
##ifl
casual
disagre
##nb
astrocyte
##lass
cimetidine
seat
longitudinally
justify
##s1
nanotube
sclc
cmax
ggt
##ylaxis
hur
phosphoinositi
upright
psc
reservoirs
stellate
castration
bcc
glc
sarcop
aflatoxin
adhere
1980s
confinement
##onent
##fully
##osylation
##rednis
workup
##usate
upa
concludes
weighed
##ulence
eczema
nasc
incentives
iner
##rotal
218
turning
modulatory
abut
doxycycl
##yly
mdct
pick
hospice
putamen
justice
##aban
deteriorated
oligosaccharide
ltc
cognate
biocompatible
##adecan
grazing
##oxygenation
seroconversion
fatality
##ynucle
deceased
sprou
freund
staphylococci
eo
##olem
file
antimal
##years
##uin
printing
##oprim
disabling
cbs
##days
spons
hydrocortisone
confid
##kii
interch
anode
crystallography
##ellulose
ltr
wealth
went
anxiolytic
xx
merely
grouping
inhibin
misuse
fundament
calcine
##orel
##ceptive
##buminuria
hypercalc
irrele
iaa
##orhabd
positives
immobil
inflation
##usor
want
astigm
systemically
hemip
dav
unwanted
predators
descent
appropriateness
##tervention
dms
sterilization
trou
##utter
sars
clamping
demyelination
2s
hon
photons
proteoglycans
phasic
cooh
uridine
glutaraldehyde
4a
sliding
036
mns
enterocol
antenna
##pv
nonsmok
timed
scaled
epc
workflow
taq
dollars
litterm
piece
denatured
045
##guan
gtpase
pleiotropic
chow
prevailing
wanted
xylan
profoundly
##tory
thinning
shoots
alcoholics
exhal
enj
calcineurin
triad
fits
##600
deployed
##ispers
##oons
games
310
plasmonic
ccl4
analyzes
fuzz
mutually
yearly
##oidy
##ieving
##omyosin
2n
aneurysmal
doxycycline
##angiogenic
##othyronine
heterochrom
names
crispr
metatars
mglur
hpr
adsorbent
##parametric
cholester
nebul
298
ctr
varices
anaphylaxis
rfs
atherogenic
##gtt
temperate
locking
epidemics
epitheli
deafness
legion
4h
popularity
dizziness
##itz
fragmented
unfolded
protonated
##osystem
hyperplastic
lon
##ilyl
exchanger
abo
pst
##opancre
wav
##reek
254
enantiomer
chloroplasts
haemophilus
oligodendrocytes
##muir
floral
avers
hydroxytryptamine
communicating
complexed
pieces
##ophenol
obstacle
instantaneous
##μg
alve
crosses
##fast
benefici
troch
esthetic
344
methylprednis
xa
recanal
blastocysts
cystatin
waveguide
tamp
##aba
noxious
235
##otomies
##apillary
langmuir
opg
jejuni
##ysts
authority
lyase
pharmacist
exaggerated
maternity
tympan
flame
langerh
aj
##oreactive
upward
a23187
##othermal
dinucleotide
quadratic
relaxed
coils
observable
pds
##phig
ingredient
##azem
icsi
hemispheric
hemispheres
antine
pbp
chemoradiotherapy
##oxides
tyrosinase
parac
bps
##elective
victimization
communications
##drs
iddm
colp
##ecrosis
##angeal
cd10
##iformis
##esters
allyl
switzer
burdens
acidity
chymotrypsin
adrenocortical
mastitis
villages
wherein
locate
exped
entrapment
derivation
mst
callosum
c8
##rem
tremendous
haemolytic
snow
stopping
##xime
langerhans
centros
pemphig
budget
t7
psd
##ocardial
qtc
oropharyngeal
##coagul
catabolic
switzerland
antinociceptive
diagram
reflective
cyp3a4
rejected
facts
quadrant
β2
psychotropic
pna
##itazone
irrelevant
persisting
cfa
polyamine
mastic
##iro
cyanobacteria
zn2
fusions
transactivation
cathode
qi
astigmatism
##trum
pruritus
##osse
granulomas
##imers
stigm
meningioma
std
046
##oresistance
031
perineal
spectrophotometric
verm
##orr
ligated
familiarity
efs
##foot
anabolic
miscar
s6
nab
ssi
zik
responds
electromyography
##pharm
computationally
undesirable
viz
##ysm
##rett
conservatively
listening
exposing
##adjusted
prokaryotic
sdf
##at1
##arf
florida
hypocal
histones
mz
dihydrop
aunps
##erus
campaigns
prostacyclin
##ethal
threats
ctla
concentrates
clad
ecules
exponentially
zona
pond
methylprednisolone
junior
turns
##r3
immigrant
circle
hirs
evolutionarily
cilia
##assemb
copyr
vasospasm
imported
corneas
gonadotroph
hill
endorphin
##antigen
##entgen
sirt1
##accept
readiness
dxa
passages
##tina
bacteriological
probed
##hou
micelle
pco2
alloys
2019
##h4
##isco
##acid
##81
theme
neuroprotection
brings
curing
dht
actuarial
meso
irel
neiss
##olization
##board
037
alkaloid
311
homologs
##gow
nominal
fasl
manure
beijing
police
##iciting
refraction
trast
##dine
myoglobin
copyright
spirometry
##rodesis
valine
##03
bmscs
ireland
prematurity
temporomandibular
lvh
insecticides
nystag
myotub
dysplastic
matches
establishes
retinoblastoma
##enet
emuls
humeral
e6
machines
slide
##tists
agglutinin
antid
corrections
cm3
discriminated
herm
aptamer
homod
chondrocyte
autumn
##tiazem
375
keratitis
##esthesia
rw
unic
ipf
quartz
optics
releases
fumig
traces
tee
ch4
##serine
213
asians
electrosp
aspartic
##beta1
frank
demyelinating
hemostatic
applies
comments
##opharmaceu
034
olanz
##ao
discoveries
dorsolateral
alongside
##breeding
posed
defl
sao
##hydryl
##ropic
ancestry
separations
gang
behave
cages
segmented
acinet
cholestasis
merits
multilayer
carcinoid
agnps
monod
##ocations
nanofibers
##arctic
carotenoid
##ureth
distension
##oglobulin
##ront
##bryonic
enal
vow
ministry
neuropeptides
listeners
saa
stringent
metabolomics
038
trastuzumab
olanzapine
≥1
destin
zeol
hav
unlabeled
##child
cholerae
1973
mmr
palatal
tumoral
fuzzy
##dy
##issible
fibrinolysis
##imidazole
distract
##ouses
bibli
kyn
##transp
homogenate
mch
acquiring
activin
synch
##uccin
speck
##biased
dibut
congestion
alopecia
bee
trimethoprim
relieve
dlbcl
##haem
dilute
rhodamine
##havi
subn
unil
obt
wildlife
gonorrh
rubella
cina
##obronchial
hypoxemia
##phosphatidyl
##biotic
spending
modal
##x3
ceft
noticeable
explanatory
tcs
haemodialysis
myasth
guest
##vin
potently
aas
ferro
033
reads
screens
diltiazem
ruthenium
asynchron
tort
##otherapies
zoonotic
protozo
hybridized
plating
hco3
bland
dermatology
simpler
grounded
acinetobacter
citrus
pace
inequality
intraoperatively
##ymm
##arcomas
glasgow
ppp
mcm
cyano
logic
cardioresp
neurochemical
urokinase
stalk
##oprolol
melanocytes
malate
photoluminescence
##my
specialties
dk
tmd
unresectable
translocations
insec
wavelet
##umber
048
risperidone
cardiorespiratory
sinusitis
pvn
pumping
convinc
predation
##ugr
organelle
solvation
cystectomy
##ipenem
subma
chemoattractant
##can
ddt
calorie
exhaus
##prop
##omorphine
flatten
vertigo
congeners
roentgen
##osteal
4000
anonymous
exploiting
kan
apd
sentence
##angitis
##imeric
hypoglycemic
pbc
ell
transparency
dpph
extravasation
terminally
ipa
tace
dnp
##etomidine
argument
gabaa
loose
unbiased
232
pacap
vz
norweg
##atia
tpo
icg
arthroscopy
aca
organizing
insemination
##imumab
marks
formyl
saturable
exchanges
##illed
developmentally
hematuria
asphyx
responder
xer
implied
##isen
enthalpy
neoin
aband
##ila
appreciated
tmp
presump
##abl
bioge
biotic
hyperint
cystein
##eto
fluency
bent
probands
lymphoproliferative
##renorphine
photosensitiz
orex
valley
lov
amil
224
quadrupole
##cnts
isothi
avenues
##olaryng
##omyelin
hemic
permissive
connect
intracereb
ripening
crust
termini
reside
##repres
membership
hyperpolarization
quoti
aluminium
##oproteins
isozymes
coincident
nystagmus
##ermined
stimulant
omeprazole
fcr
superimposed
turkish
sre
rises
##openic
maxilla
anf
lipolysis
corrects
##etitive
vo2max
##osts
hindlimb
##chemic
unresponsive
##indole
chyl
nanoshe
photocatal
subspecies
sativa
undiagnosed
shrna
asymptotic
cau
endarter
dibenz
contributors
##ho
argon
##wood
nw
basophil
seeding
420
subtotal
slaughter
unstimulated
unselected
cochlea
tia
callus
s3
##gers
##insically
##ocere
phosphates
graphite
poster
apa
octan
pursuit
##atide
##ithin
habitu
estrus
granulation
wasting
unsp
diary
influential
sz
##inoids
cx43
inflow
exocrine
hypok
tp53
complemented
habitual
athle
speakers
##diagnosis
##ospinal
carrag
##flora
verb
benzoyl
##iplatin
immunod
pharmacologically
sows
naphthalene
aboriginal
azide
aerial
microbiology
uva
decide
aphasia
hub
carbapenem
phthalate
prod
iodo
intrag
recurred
compelling
phac
xps
biceps
streptococcal
pao2
gavage
detrusor
fasci
enalapril
regi
nonsmokers
intraluminal
pmns
##ollagen
barrel
elicits
detects
##oposterior
mate
1950
pseudoaneurys
##eor
orph
##kat
fried
weighting
propos
pps
manager
eliciting
cannula
##tert
neurobiological
enjoy
powered
camer
##anar
buds
047
photoreceptors
pipeline
##iry
childbirth
##imentary
##orbital
finnish
pgp
##adiaz
butanol
##iiod
capsul
autistic
##oacetic
650
conspic
innovations
sulfated
dissatisfaction
manipulate
interrelations
xy
octre
downward
reapp
carrageen
nitrog
##othione
mimetic
reef
blend
##car
anaerob
mansoni
truly
ignored
parturition
##acral
chemosens
strictures
polyvinyl
fischer
traced
osteoblastic
at1
realization
amiloride
msa
curved
solutes
escalation
comet
##abetic
##phone
cryopreserved
dialysate
uniformity
##mar
extraord
##urface
attempting
##obiliary
destroyed
##lycerid
##oglut
underscore
triiod
haploid
durability
pdms
caregiving
overcoming
infrequently
c7
kallikrein
tetrap
biotransformation
stimulator
lysate
scarc
thrombi
antich
contrasted
femtosecond
tolerate
epoxide
getting
tracers
glucosamine
commentary
hologr
peptidase
##opterin
bronchiol
porphyr
myocl
contracture
lacrimal
densit
ccc
##ophyte
walled
sentences
dub
##mph
##ismus
citric
mx
cinahl
kras
estrous
antiinflammatory
embedding
##annel
nascent
contiguous
huvec
barrett
ambig
oxaliplatin
##admin
phyto
equivalence
virions
039
gwas
≥2
compliant
accumulates
##reen
dobut
##king
tuberc
##odynia
odn
academy
tz
##d4
365
actinomyc
seventh
urological
parkinsonism
##itical
cylinder
hydrated
laev
bleaching
hatch
inducers
baumann
##roventricular
micellar
##6a
microinjection
vascularization
accomplish
##osseous
217
monolith
imperf
##western
anca
g0
maxillofacial
unadjusted
divisions
meniscus
unaccept
waveforms
niddm
extant
integrates
manufacturer
ops
##tices
rtms
sab
zip
rls
exo
##entioned
##gly
ultrac
pegylated
thorax
##rum
formerly
sulfhydryl
yb
##ozoites
norwegian
239
dobutamine
fibromy
iugr
kines
hay
stressor
pparγ
##urge
opa
semiquantitative
##eping
cch
palpable
##mb
pfge
universities
intracerebroventricular
locoreg
infarcts
stereotyp
moderated
laying
argues
submaximal
tig
sati
apomorphine
geor
ppt
gob
fission
tps
homogenous
pentobarbital
e7
dnmt
genotoxicity
accelerating
metagen
##elt
reposition
chile
ultrafiltration
story
radon
##osylated
sphingomyelin
aseptic
bridged
tracheostomy
raphe
5a
submandibular
hispan
mcg
popliteal
imping
mainst
##isy
equilibr
##orespons
pellet
##unts
cultivar
unload
##erts
##biosis
nil
anchoring
ideally
localisation
dichotom
##feri
amphiphilic
micromolar
advised
thicknesses
##encephalon
hypogonad
##ronic
azath
##olstein
candidiasis
fviii
lmp
csc
##izability
accommodation
nonresp
mace
storm
##opar
##aks
microbe
npv
c16
faeces
hydroxybut
ptca
hematopoiesis
chlorhex
##ype
paramount
##lorinated
380
deeply
##illes
cq
##ighter
s1p
t0
##igan
thermost
cnts
##ildenafil
##alcoholic
thf
opto
mantle
directors
imprinting
herbs
275
##uis
responsibilities
mn2
topographic
bees
wisc
3b
radiolig
nitroso
epidermidis
carib
immunologically
nnos
##gp
marriage
ptb
hypoglycaemia
gay
oxidored
propria
sink
chromophore
##ynyl
incompatible
azathiop
solubilization
rarity
neuroh
7th
neisseria
crime
localised
rebound
fon
irf
mailed
hcm
seedling
brit
pml
oscillator
heterodimer
neutr
biotechnology
gase
neurovascular
naming
tga
transesophageal
tubul
flick
reactors
photoin
reinforcing
perovskite
chlorhexidine
wish
oncologic
extracting
injectable
fecund
neurology
polyposis
gef
royal
initiates
retire
zw
favoring
demethyl
##oniaz
iranian
patterned
kyph
continence
##quinoline
##azoline
phosphorylase
bangl
##ths
achievable
dor
vagina
urgency
infestation
##reless
370
##ouns
immunofluorescent
aneuploidy
periodically
deae
bangladesh
abortions
transmural
prazosin
##okines
oldest
anatomically
subdural
pathophysiologic
buffalo
midwives
hypertrig
##anone
manipulating
##eliness
biodistribution
millions
smd
intrinsically
480
mites
hypoc
##inflammation
cem
aspergill
cushing
transients
contracted
##bec
digest
pitfalls
sildenafil
electrochem
hnf
uranium
colored
##i1
adn
notew
counteract
electromyographic
piezo
instrumented
spiking
humor
pgs
##oton
sos
logical
##okinin
inferences
acetylated
avoids
##iet
spliced
identities
##oflavin
biochemically
nadp
inductive
supplies
debilitating
biomechan
tertile
bmc
nitroglycer
##methylation
maneuver
##pb
drawbacks
preg
homosexual
cholangitis
sider
##torh
thiored
228
estrogenic
compromising
ed50
presumptive
kcn
evacuation
convex
prrs
##ultured
fractal
defensive
indeterm
cadavers
photosystem
crush
isoniaz
##oduoden
sonic
##osi
annulus
azathioprine
baumannii
knowing
scru
denaturing
butter
diat
lymphangi
burgd
##κb
ict
ependym
seemingly
##uronium
balf
unbound
adapting
cba
##azin
phenotypically
controller
adenylyl
##omib
sorafenib
hypophys
lyme
##operfusion
radiologist
wrong
licensed
transvers
vsmc
clip
baroreflex
niv
tpp
runoff
abduction
burgdor
##ellin
heterocyclic
hydrolytic
repolarization
caen
##ogastric
prag
merit
gj
phosphatases
corners
ptd
pgi2
##etus
manufactured
intensified
metabolizing
claimed
hypercalcemia
##omening
unheal
wireless
uncoupling
##centr
##endothelial
pach
##h2o
noteworthy
holstein
mof
google
##ucine
dichloro
cryptic
##orptive
potentiate
##yer
unco
ags
penal
relied
vsmcs
leucocyte
investigator
##professional
poc
beneath
sulcus
##bw
interconnected
nrs
pleomorphic
oligomeric
bacl
globular
burgdorferi
jak2
##orhabditis
pns
transurethral
naa
calcifications
sulfoxide
n3
degranulation
##ervical
court
heterozygotes
##db
##access
245
hypertriglycerid
boots
characterisation
##adol
##rology
lett
meter
##cysteine
3beta
nci
mbl
shortest
##folate
isomerization
pyrophosphate
precipitate
progressing
tumorigenic
so2
b3lyp
##aea
fetoprotein
##transplantation
tailed
##bear
purpura
trehalose
mission
##trid
dihedral
swab
##omethane
hcs
00001
##trex
dac
utilisation
##ennial
##ostosis
budding
buprenorphine
lpr
##otap
glycated
ale
amend
occlusions
ki67
geographically
spasticity
your
sexuality
underpinning
incisor
reinforce
chronological
##ran
##immune
phantoms
##1a2
##arth
rivers
thanks
demonstrable
##etries
##sm
adjuv
hyponatre
berg
thyroiditis
agn
guarantee
singular
proto
commiss
##uma
mlc
biv
gaseous
vascularized
myelodys
##urities
classifying
connexin
visiting
ahi
rhoa
vivax
polyt
##af1
fak
##idines
tan
042
dystrophin
inefficient
##180
phenomenological
recapit
roi
palmitoyl
##cription
pld
appeal
219
convey
isoniazid
dysregulated
facets
assignments
svm
anteroposterior
##odin
transposon
##amyl
pgc
allop
washington
##ovi
rheological
##cel
club
embolic
##arabine
website
ay
k2
halo
homing
##orient
collim
##rogenesis
serovar
ryan
consume
delineation
##ivirus
necropsy
##rosthetic
##ospermia
##burn
fabricate
euc
grounds
permitting
player
enzymatically
sax
ish
novelty
ssr
##iper
tut
instructed
village
##arche
unexplored
styrene
##balanced
##q11
artemis
discontinuous
histopathologically
resins
symbiotic
peep
##ondral
categorization
transv
##urrent
043
##children
anaesthetized
stillbirth
streptomycin
postp
afterwards
isothermal
##00000000
valgus
sjogr
##bv
##n3
genbank
ryr
##ectoris
nonex
234
leucocytes
externally
abundances
##atids
pept
joining
nyha
##yled
achilles
pvr
neuraminidase
grape
urticaria
##ourished
certainly
##ometabolic
##ematous
microglobulin
taught
aversive
multicellular
##293
##romegal
##osable
involunt
##activated
cd56
##esin
albuminuria
contraindications
relieved
eliminates
##lc
architectures
certification
nicu
keyword
mpp
##ffer
transcriptionally
orifice
invading
cannulation
v3
synchro
heritable
negoti
chat
esophagitis
##ensory
hgh
broadband
hydroxymethyl
ensures
tenderness
ncr
calcane
endodontic
sps
##ca1
phosphatidylserine
sjogren
6th
cd19
api
acetaldehyde
visibility
241
shh
stomatal
octreotide
dephosphorylation
prick
hospitalisation
auxiliary
##igenin
rit
incar
innerv
neuromod
affordable
nanorods
hun
immunosuppress
thai
forth
##ochondral
perfusate
##tri
stn
acclimation
vitell
avr
##ocortex
scrutin
bats
##onol
midgut
bottlen
mmt
sensorineural
heel
telemedicine
aggressiveness
##radi
isoenzyme
incap
##being
glucoside
5s
coul
aii
##ternal
classroom
##oting
immunoassays
microorganism
directing
morphometry
urease
diphther
myoblasts
##opolymer
trpv1
rotations
postulate
##acyt
news
locoregional
breakfast
sulfonyl
frustr
049
progresses
mesoderm
##osclerosis
##hom
valued
ppargamma
cyto
##ollen
fibril
##ells
##actyl
epcs
##elong
calculi
prepubertal
proceeded
hernias
invertebrates
pakistan
##map
tetramethyl
bacul
immortalized
wellbeing
tdcs
biosensors
omp
xp
##amoeba
taxonomy
hispanics
vene
bpm
##onins
pectoris
hedge
##owed
deuterium
decel
subdiv
ip3
fimbr
##d3
nitrophenyl
thall
slip
sant
maxima
##zomib
##othi
229
##hog
deaminase
cb1
ambul
miniature
conventionally
imipenem
interferes
##verted
magnitudes
##tress
triterp
fts
##omplex
conclusive
wd
##avicular
adhered
clarithromycin
polyg
##ucting
lactis
rage
##porter
1966
##fluorescence
laevis
##pot
##osh
molecularly
rectang
ihd
vasoconstrictor
##ivudine
mcd
kilob
ancestor
quantitated
polychlorinated
dates
whey
3β
2m
phosphoinositide
amni
pheochromocytoma
golden
approx
##fts
dosed
exf
say
##orylated
ebs
minnes
##amido
predefined
##cc1
penetrate
spondylitis
reliance
terp
anoxic
jew
adrenalectomy
##reatment
acrylamide
##azide
tbars
##lock
titre
##othec
offenders
sunlight
##position
practiced
rectif
iap
synchrotron
##itil
huntington
entrance
modelled
therapeutically
##apore
microsurgical
overwhelming
##itably
myocyte
##kl
ricin
arctic
dsp
##937
beating
biotinylated
p50
##endazole
tst
penis
##electroly
default
jurkat
20th
interrog
irrig
dipyrid
antiphosph
##coprotein
panels
migrants
cardio
ploidy
##kinetic
##erson
s100a
cryptosporidium
lactofer
replicates
framing
myelinated
lysophosph
phosphatidylethanolamine
caenorhabditis
fap
##isk
glycaemic
##rote
retirement
##apto
sons
orches
sclerosing
ssa
citizens
equivocal
041
crystallin
amoe
compiled
isotonic
##delta
progestin
##lessness
editor
acromegal
radiosurgery
bdi
og
accessed
##retion
minnesota
money
bca
depicted
fingerprint
mindfulness
rug
restrict
##mics
borders
carolina
displacements
heavier
mdm2
gss
deterministic
lubric
extensions
athletic
dentition
##tiveness
beneficiaries
nephron
hypnotic
caf
myb
promptly
##orphism
dmf
bulky
modifies
confluent
##osities
##itrite
ogtt
epithelioid
vzv
mmf
tones
controllable
##olinergic
avium
fibrillary
glucone
##ographies
drastic
anteced
pdi
overlying
degenerate
fibromyalgia
viremia
qa
fragility
##ophytic
mta
##occlusion
cour
ceftr
236
negativity
sectioned
mdma
defenses
flavor
laminar
mainstay
facilitators
mine
##2r
urodynamic
ner
forel
nadir
##cryst
clath
17a
sedative
compass
##missions
bioassays
fluorine
ginseng
tampon
ccd
stump
mthfr
ui
universally
gynecological
indexed
nf1
entang
serially
248
agend
ceftriax
urs
endarterectomy
pleu
hypothermic
administer
fluidity
riboflavin
interspecific
thioredoxin
extubation
##onecrosis
enhancers
igh
herbicide
town
draft
floating
acknowledged
##alasin
kre
f3
matr
nonrandom
amalg
##acholine
originates
immersed
gm1
mehg
eigen
replacements
carboxylase
##ifferentiation
##ystitis
youths
endocardial
##ostigmine
cycload
nim
lactone
##opram
corroborated
egr
##fv
supervis
##romed
##odomain
arte
enterica
##3t3
antidiabetic
##behavi
sid
mbc
impurities
adenoviral
##oproph
indeterminate
perone
strugg
landf
pear
unavail
lyophil
pant
##arius
refine
syringe
##oning
##rice
##italopram
cory
hapt
pthr
antimalarial
##arded
amh
##welling
ngs
adventi
##tite
usp
##afted
325
rps
perpetr
caspases
appreciation
genu
strab
hypermethylation
##idian
juxt
##s2
kup
carbonic
tracked
kiss
meteor
intratumoral
accreditation
##antes
trying
preload
perforated
party
blasts
quartiles
fractured
disinf
singapore
antitr
ductus
nonhuman
dioxin
cholecystitis
repairs
door
lifelong
aro
swollen
modifier
proceeding
hba
mos2
ceftriaxone
humerus
offs
mutagenicity
mediastinum
potencies
willi
ht1a
latino
estimations
diffusivity
##atial
condyle
##tilb
##oronary
fcs
elaborate
abbre
weaknesses
b4
cus
proprio
##ureter
##anserin
craving
preparative
transfused
cecal
##n4
##individual
##tigens
saccades
kyoto
racemic
cholecystokinin
sorted
buffers
cach
impr
metacarp
balancing
##±4
phylogenetically
johns
interphase
scleral
inception
##stalk
markets
isoenzymes
dsdna
sgc
p75
##aploid
otolaryng
asthmatics
landmark
exceptions
undetermined
tos
readmissions
##ohep
nanotechn
macron
##baric
explant
prehospital
demethylation
sulfameth
##ih
quadruplex
##acoustic
unprot
exercised
hydroxyvitamin
abbrevi
##jd
seeks
encephalomyelitis
duplicate
protonation
##iors
glasses
victor
##bos
synchrony
243
coadmin
fra
shigella
##ocalization
tcc
neurofil
aforem
metallothione
atria
liability
aforementioned
angio
030
odc
kenya
microflora
mdr1
coales
anoph
##agal
duck
heights
maltreatment
marm
cholangiocarcinoma
##antigens
##oporphyrin
##ethane
044
amyotrophic
##entilation
retinoid
1972
pwv
oncologists
mend
##ypti
##ocentesis
colomb
mvd
hedgehog
##win
##ostal
hyaluronan
hallucinations
cdh
appendix
nanog
131i
lacun
rbp
##rowing
4b
orthostatic
gus
beverage
227
##apical
gynecology
cholinesterase
homozygotes
##odyst
yers
15n
##126
incarcer
fbs
rer
##ylv
telev
concerted
##adaptive
powders
hyponatremia
zh
cords
interindividual
shunting
vigilance
audio
astrogl
ferrous
242
tall
brucella
hib
thiamine
exceptionally
1ra
viscous
symbion
flare
##oplegia
proficiency
keratocon
##enoids
##the
stear
ringer
unhealthy
##orbed
incidentally
hots
##aters
quail
gp120
##arterial
byst
alkylation
gdnf
ionized
##alkyl
##onscious
##apsules
##nu
##erule
##anolic
cholesteryl
nitroglycerin
rolling
##aginous
petrole
pnp
##cement
humic
hyperoxia
pga
fluctuating
tfs
coiled
##ovulatory
rainbow
##iaa
spermine
exploitation
meniscal
##standing
emerges
tsa
log10
innervated
inactivating
microalbuminuria
attenuating
bootstr
spectrophotometry
broadening
flush
##burgh
##duced
accelerates
##men
archaea
##renic
partnerships
##oremed
fecundity
##ospatial
levo
nucleophilic
lrp
##506
cinnam
luminance
alfa
subgen
lacc
adjuvants
252
ici
pread
seropositivity
##bearing
fron
nonl
hyperbaric
cardiogenic
cmt
##iclovir
cardioprotective
##hard
##critical
osas
inactivity
bottle
azithromycin
transcriptomic
scleroderma
nomen
advocate
hourly
stokes
##opathogenic
incisions
errone
cyp2d6
carboxymethyl
clarity
astrocytic
neocortex
bacteroides
adenomatous
cci
recanalization
disks
densely
##olipin
lfa
nanowire
dexmed
methacholine
tetramer
petroleum
asymmetrical
fibrillar
##eight
inaccurate
exhaled
1970s
##othermic
fe3o4
clind
ketones
runners
pcm
magnification
vacuolar
dipolar
antarctic
cine
synonymous
hydroxyproline
prevalences
pragmatic
hysteresis
triangular
glur
shortcom
languages
crosstalk
syntheses
polyneu
shortcomings
assault
##ecies
rheumatology
##arietal
acetylgluc
elaborated
bend
dcis
mesenchym
mechanistically
##exy
replicating
hcy
thicker
temporarily
dyskinesia
dexmedetomidine
chb
intraves
shuttle
viewpoint
privacy
sarcopenia
decis
postex
tgfβ
##oblastomas
eur
imipramine
##reshold
cytolytic
cargo
≥3
##cb
ictal
##igel
stoichiometric
##ongru
lncap
cd1
multifacet
sns
thiols
misdiagnosed
antiphospholipid
trus
furn
255
##ecium
fulm
mitigation
benzoate
##116
rnfl
u937
acceptors
11c
anchorage
bisphosphonates
involuntary
rx
overproduction
ryanodine
chagas
absorbing
specialization
##azid
calv
multiplicity
##riers
##etting
breakage
shielding
formulate
questionable
##outs
clindamycin
edible
pione
##agle
metamorph
advancements
##trexone
nsp
actinomycin
ipr
crowns
implicating
dentine
recalc
demineral
celecoxib
##ytoplasmic
singly
quotient
soccer
mold
internally
radioiod
multifaceted
isth
operates
electronics
oocysts
##epi
##ohyd
externalizing
comfortable
russian
nymph
epilept
##architect
sce
##erea
aedes
nms
dehis
jointly
syncytial
infinite
endos
isozyme
##osmotic
covariate
isomerase
manufacture
##esartan
259
##onated
casting
brand
schistosoma
fumigatus
bifunctional
##fused
littermates
0003
photolysis
crab
ohda
##ifolia
strengthened
darkness
michaelis
imperfect
polyaden
rech
##inately
aerosols
##eland
mushroom
##cessing
pressing
vagus
snails
##h3
##nts
265
multiplication
gamet
##astigotes
iri
inductively
##ivial
##iptyline
condylar
plp
gig
##rotoxin
columbia
ncc
shel
intervening
nomencl
pend
borte
##reported
parall
tricyclic
cbp
suspect
meningococcal
peptidoglycan
tetrod
##fu
##acological
c1q
##aval
incongru
phagocytes
hac
emergencies
denitrification
bortezomib
##lational
neuroleptic
peroxyn
endings
interdep
cst
diacylglycerol
simian
enth
biob
1s
transvaginal
fourfold
blockage
retains
lactoferrin
nem
neuropathological
neuroinflammation
dyslex
dsrna
triiodothyronine
##oagulation
##icus
coordinating
hbo
nut
##itidine
underweight
baclofen
chances
preparedness
##ealth
phal
telomeric
concussion
##junctiv
##eno
##atography
gor
juveniles
polish
neurosurgery
deacetylase
accessions
##port
##erves
flocc
cognitively
bronchiolitis
deactivation
exudate
periodicals
multitude
fenes
metoprolol
edent
fixing
##rad
reassess
cd133
renders
pdc
duplicated
##adate
##odone
251
liz
##ituric
##hydroxy
##akia
pork
claud
f4
##apheresis
##inesis
nucleosome
spt
denv
flip
accessing
epididymis
rgo
dce
tj
cbz
##tinib
senile
quiet
##etermined
fulminant
ovip
ultrafast
nonalcoholic
narcotic
dating
##adecyl
266
nmdar
misle
vibrations
usability
##capes
melt
neurobehavi
startle
tetrodotoxin
save
monocytic
villous
237
gratings
hemangioma
disparate
perturbed
discourse
partum
specify
rooms
formate
dentist
scopus
##ancerous
nanosheets
sis
allergies
polyamines
##lm
researches
hca
characterizes
transducers
vocabular
emit
predominated
##meter
facs
iud
biomaterial
qsar
relying
aspergillosis
encompasses
##menting
unrel
##oremediation
lithotr
capturing
6m
suite
cort
curricula
##alog
cvs
naoh
dilemma
315
shocks
sublethal
transist
crass
laid
##graphs
cacl
##opharynx
grows
hydron
laterally
underlies
anesthesiologists
carrageenan
##opically
chlorinated
enantioselective
segregated
arthrodesis
depolarizing
scotland
charco
shunts
##transplant
##1p
vortex
arteriography
thawing
polyelectroly
##inum
conspicuous
jh
sight
rcbf
booster
triacylglycerol
immunoreg
rhodopsin
##orrhizal
toxoplasmosis
lamivudine
##ivir
speculated
##romazine
projecting
argentina
dma
indones
lmwh
##avidin
spaced
pedigree
farming
bubbles
cancellous
convulsions
belt
##edoch
endocytic
cyp1a1
##ophyt
excurs
denervated
weaned
phr
monitors
adamts
##uer
wakefulness
##rosterone
circums
pediatricians
pdl
myasthenia
lind
spill
wheezing
columnar
glucuronidase
territories
##arrhythm
nanomolar
causality
##oven
colectomy
hemorrhages
ghz
##5b
inbreeding
##ellites
##ectant
suckling
neuroanat
infra
##omponent
absc
vasodilatation
##tins
pav
##omel
milder
myotubes
##alic
##butamol
wg
soldi
torr
aegypti
cscs
affords
##ht
hypercapnia
tamponade
nonadh
supras
vign
##encl
##space
physico
zirconia
pthrp
intentional
kev
pediatrics
##lete
valproate
syll
thawed
##thio
##quat
paa
inflammasome
##lymph
irritable
ther
calving
##edral
bimodal
pneumonitis
##eic
##olon
globe
sms
allodynia
fura
##opeptides
##ogloss
##uters
ipc
inulin
genit
equator
msv
thoracoscopic
##rolateral
246
rrs
conceived
reentr
##yletic
unprotected
dione
##oty
qaly
##ocs
##sil
stands
salbutamol
##pregnant
peroxynitrite
amazon
nbs
hydroxyethyl
hemophilia
myopic
microvessels
street
initiator
obligate
television
##idosis
counsel
##oide
##axanthin
##eme
overestimated
nord
249
##ectivities
thyrotropin
recovering
qtls
earthqu
internalizing
##onus
##liptin
bottleneck
trapez
mvc
040
cld
plasmacyt
2500
tung
diamin
evoke
nucleolar
fundamentally
repeating
transformants
caribbean
##wl
wastes
##equencing
arthro
cd38
dystrophic
vg
invariably
caveolin
##itizing
charcoal
unravel
delaying
sock
244
formats
pyrolysis
emin
psii
bpy
cpm
hek293
captive
shells
schoolchildren
cardiometabolic
##7a
tars
empowerment
##agenic
extrapolation
itrac
amik
equity
295
query
eicos
tetrazolium
##qs
##⁻¹
##coming
##body
canopy
##har
tympanic
insults
diesel
pteryg
vertically
intradermal
appreci
spheroids
ddp
##cephaly
18s
duplications
preoptic
##arbox
247
kupffer
mercapt
##enclamide
irin
hch
##onsin
cpe
recirc
tata
emboli
protozoan
heterotopic
certainty
##epsia
253
##anate
pretest
##utres
thermophilic
440
abstraction
telomeres
vegfr
##onders
adenosyl
intragastric
cycloaddition
spm
##orescence
mercapto
alumina
tentatively
advocacy
gk
pnd
##vhd
stays
temperament
compress
##amili
bullying
unfavour
habituation
##retinal
emr
##ocholine
substitutes
retail
confidential
##iso
paraventricular
scopol
wal
conspecific
completeness
antihist
characterise
catastrophic
excip
deoxyribonucle
ceftazid
glib
orbitals
lipof
##atur
transcutaneous
##che
precautions
kinin
minimization
formic
dyspepsia
##eptor
itraconazole
ramp
bisphosphate
parag
phenols
peru
odontogenic
profit
fluorodeoxy
##worth
tpn
reversibility
hil
extras
infiltrated
##tring
nes
senescent
autogenous
erps
naltrexone
##344
##fi
capd
radioligand
contours
affairs
altman
##enolol
dehiscence
synovi
loud
rs10
assumes
fms
amikacin
irinotecan
smcs
cephalosporins
conferring
insula
mismatched
oxidoreductase
concert
##ysteroid
restricting
redundancy
##ionyl
sorbitol
dislocations
##ryl
##lers
cereal
##lingual
bart
##roke
igt
queens
nipple
buffering
scalable
##oneu
permanently
chaotic
ganglioside
##iaxial
oxygenated
compositional
inclusive
hypothyroid
internationally
farnes
thinner
gulf
crystallinity
##hb
placentas
cartrid
wisconsin
##famide
##oprophylaxis
wheelch
recalled
alkylating
activations
electroporation
bival
cob
bras
lrr
convincing
ld50
antifer
intensively
dpi
##nn
athlete
##obutyl
cystitis
haemorrhagic
hilar
##reach
ceftazidime
splanch
exhaustive
1971
myelopathy
vitil
##tiform
##atri
massage
##a3
administrators
cpc
##rey
polyureth
autophagic
pgr
divide
glue
rts
vta
deposit
##ibrils
fork
##ll
##ycholic
defibrillator
orfs
threatened
leukemias
appointment
ira
merist
isc
cape
myr
cytostatic
videos
agen
cohen
northeast
dash
informatics
malaysia
governance
kainate
adnex
bears
dihydroxyvitamin
capping
replicative
uracil
bcva
villi
ats
cyclopent
rsa
proposals
goblet
papilla
##amole
bulls
##oethylene
castrated
illumina
oint
oesophagus
##athin
spouses
trains
pdac
spider
lowers
ownership
##l3
decont
craniotomy
disproportionately
2p
mph
crowding
##osarcomas
##cedural
pvc
chelation
##itism
invertebrate
##fm
ipt
transferring
pge1
scfv
olt
proteinases
##ums
hscr
pae
isotype
favors
rantes
268
decidual
unfamili
immunology
atopy
typed
##econds
tie
lift
glut4
smr
ille
diphosph
##olamine
##angiect
humid
hyperinsulinemia
biochar
cervic
##factorily
##romal
atenolol
attrition
##aciens
converts
faith
morris
vaccinia
ethoxy
nq
##junction
moves
dispersions
fertilized
periventricular
parat
reca
nonsurgical
257
borrelia
nonpregnant
##scat
##gener
modestly
customized
scopolamine
##kc
cheap
issued
electrophysiologic
c12
305
bicycle
dwarf
isothiocyanate
sphingosine
estimator
discriminatory
choledoch
intergenic
dentures
ankylosing
##uristic
requests
aquap
dyads
##eav
isole
unaw
polyneuropathy
rds
278
taxol
casts
anticipate
posttransplant
aminoglycoside
arabia
##americ
batches
adopts
##electroph
survivorship
##enedione
interprofessional
opc
taqman
corrective
accord
##aparin
waals
losing
##cast
cautious
##osynthesis
lan
micrometer
##factors
microliters
##rolithiasis
endosomes
knot
miscarriage
kaposi
258
##olytica
nachr
macrop
arteriolar
anticholinergic
umb
staffing
marketed
sirnas
computations
renewed
mesenchyme
##enne
vagotomy
##ocratic
employee
linol
ethylenedi
speckle
##ifos
apgar
regenerate
rpl
spermidine
retinas
fent
##atechin
dipyridamole
egta
outreach
##onis
exacerbate
correspondingly
chalc
jack
lifting
##planned
nef
incentive
##achus
anthracene
framesh
stripping
##tip
##oxine
273
410
##ventive
gastrop
##enched
nonparametric
matured
fault
stm
saccade
##uronal
##asure
piezoelectric
amalgam
##ithm
esd
virion
buried
propagating
##opyranosyl
nomenclature
jas
bcl2
noncon
proband
breakpoints
prices
miniat
285
pectoral
microdiss
##eca
45ca
##gesterone
thiobarb
disruptive
macaque
coeliac
oligodendrocyte
cereus
cd31
salicylate
##retic
intert
mucositis
synthesised
rewards
mma
carin
scant
definitely
colostr
aeds
##oping
aac
collisions
keywords
nlrp3
kine
antiangiogenic
unfavourable
enucleation
football
##apent
myelodysplastic
##enzym
thickened
hyperrespons
fw
crashes
yersinia
glibenclamide
backscat
mrp
##anesulf
antineoplastic
obstructed
distinguishable
snack
focuss
##osaminidase
signed
vitiligo
htert
##her
288
fertilizer
ubiquitination
submic
interim
complicating
inlet
acycl
deciding
##analy
##erry
301
jia
putres
tbs
ancillary
eco
oxidants
##odystrophy
rca
subreg
goiter
bodily
forage
crystallized
delib
##osahex
##ulitis
ontogeny
chips
intracytoplasmic
dad
unint
extracranial
overgrowth
##fractionated
##arins
htr
##phae
epilep
adenoid
isolating
cole
##otency
unconscious
roch
##oeae
sprouting
endeav
ghrh
peroxisomal
263
##rogenital
##09
##rospor
##entrifug
bulim
nanotechnology
tir
acrosome
dapt
electroencephalogram
splanchnic
asparagine
asphyxia
acd
brs
nanostructured
gravis
##urinol
diphtheria
mania
bouts
holo
silenced
304
302
cavitation
##cam
manic
epilepticus
chic
sprint
parkinsonian
sternal
vertebra
glycosaminoglycans
exogenously
microbub
leaks
patella
isotherms
antisocial
reversing
dqb1
##antine
propagated
##centration
rectangular
continent
comt
ventrolateral
corticotropin
misleading
ultrathin
maladaptive
scrotal
iiib
canis
hairy
phonon
heterochromatin
pbr
267
##oconazole
≤0
organisations
alignments
bioaccum
thalidomide
dz
immunosuppressed
salicylic
perchlor
army
streptavidin
awak
quarters
appearances
sesqu
satisfactorily
nonselective
inherently
##ochond
ferromagnetic
researcher
arithm
ql
predetermined
rhizosphere
pallid
degs
##jiang
optoelectronic
vulvar
posth
inquiry
nitrobenz
bde
h9
qm
evs
arithmetic
dth
azt
##yrinth
biomechanics
anhydrase
tethered
dimethoxy
russia
##tida
officers
malfunction
microvessel
460
amlodipine
##ofibrate
broilers
##odilution
ota
##tles
##anoid
apache
achr
fcm
polyphenol
spermatog
fingerprinting
##blas
hepc
classically
##rew
endosomal
##±5
ginsen
coexpression
##lux
photovol
rio
proactive
steat
coculture
socs
reflections
t1dm
philosophy
##onella
##atp
fontan
lymphedema
##cet
paulo
hydroneph
vinc
##nl
bringing
shadow
rapd
##etit
cooled
##tonic
shield
520
microvilli
nct00
histochemistry
##vo
##agliptin
phc
##2s
papilloma
coliform
biomimetic
lepr
bism
##epo
esophagectomy
legionella
learners
ovariectomy
subsam
versatility
millis
acous
docosahex
contingent
colostrum
##iflor
anthocyan
##imidine
##ipsy
decisive
##orating
##etan
capita
disassemb
##week
chemopreventive
fpg
hydroxyd
normals
omn
chelator
instar
misoprost
##etium
subclasses
reoxygenation
##imeters
paced
##gamm
purple
distortions
avidin
profess
claudin
euthyroid
aliqu
shbg
synovitis
gonorrhoeae
switches
thyl
paco2
##itim
glycoside
groin
antitrypsin
##aracter
276
##rian
roux
thiobarbituric
misoprostol
amoeb
##ourinary
heteros
##oglitazone
ttx
logarithmic
cemented
palmitic
##nr
undern
##umenting
chen
##200
sri
lc3
enolase
intratr
menarche
administrated
smith
##lear
depolymer
macul
erythropoiesis
accompany
mineralized
fabp
commensal
cler
cytochalasin
unipolar
agenda
telangiect
binomial
sod1
coagulopathy
pdr
ced
kw
stick
##ybden
myd88
eralpha
lord
bystander
sinensis
modifiers
hiber
calm
##ptosis
flavin
provocation
fluorophore
desaturation
receives
mycophen
radix
immunoperoxidase
procollagen
thallium
fmlp
##anoic
sterols
262
edu
gym
intracardiac
##tera
##grams
mounting
diis
crosslinked
##ymia
radiographically
ophthalmology
##isis
g6pd
##oba
arteritis
pioglitazone
postgraduate
hang
##apa
anopheles
evenly
hpc
urogenital
desulf
dextrose
##ortus
α1
mtc
autograft
##ilia
peritoneum
hemipar
michigan
phent
arid
nkt
spleens
cooked
palpation
mcao
clathrin
ils
inclination
lecithin
astrocytoma
poliovirus
empiric
##elian
mares
ghana
##opoietin
##264
amid
phytoplankton
gras
cse
vocabulary
genitourinary
phrenic
##obr
rhb
plotted
xyle
vocs
##jejun
ene
tough
monovalent
inspiration
##litazone
dj
##affinity
rotated
osmolar
fellow
lcs
aphid
enterococci
e4
wallis
mpfc
nevi
documenting
postal
anterogr
tnt
radiologically
painless
swing
harbored
atypia
agenesis
baculovirus
satur
lvad
sulfamethoxazole
marsh
##riol
ffp
ema
greek
##igmentation
thyroglobulin
##fig
##ropylene
anoxia
pharmacies
cornerst
graphs
##ombic
hemi
femin
bmax
strabismus
naked
##itans
##formans
##obaric
tune
krus
vanadium
##icum
subth
topically
enterotoxin
fissure
acellular
##irm
##ohum
misclass
##agog
hallmarks
χ2
professions
tendencies
entitled
##ecret
shoulders
##otrophs
##f5
f0
pret
##ui
maltose
##grass
transluminal
tails
supern
chorio
untrained
protamine
tolerable
##ofr
pseudoaneurysm
things
koh
nog
ltb4
##plus
cofactors
neurotoxin
aic
##ermectin
dilutions
macros
glot
##oembryonic
fe2
##ounds
cystine
fru
##epsy
hin
urate
clonogenic
synergism
sort
zwitter
muc1
##iment
##othre
a4
keratoplasty
avascular
necessitating
sip
rifampin
##lycaemic
achievements
pathologist
plethysm
wnv
monocular
reminis
virtue
##ocycline
##front
##tinine
spaw
accent
noncomp
lobular
widths
translocated
synech
southeastern
##orbable
acetylcysteine
zns
ppg
mustard
##triatal
coumarin
nucleosides
scholars
garlic
hyperuric
catalytically
soma
ruminal
citations
stories
lentiviral
##5y
272
##akis
circumvent
nse
apps
fst
grossly
chlamydial
electrom
impressive
passively
unintended
myri
gangliosides
featuring
sbs
abduc
identifier
##azolin
ribonuclease
vagin
b5
contracting
lifetimes
##legic
##ybdenum
impulsive
adaptor
##yramidal
symbol
pid
eicosan
ethi
##adiene
hybridoma
recruiting
##rier
##terna
harms
dura
reser
shang
tlrs
tce
intracoronary
matrigel
basket
arcuate
octyl
ethers
mpi
polymerases
czech
transwell
##osupp
protoplasts
##fected
intuss
secretin
##ylon
pyridin
pyre
resectable
##feld
312
intracellularly
nonresponders
chaperones
##ovaginal
ikappab
yt
impingement
carcinoembryonic
japonica
wt1
mastoid
taf
##gm
ecp
postsurgical
endocannab
helium
thermoreg
competitively
unidirectional
hts
desmin
##iden
hemagglutination
osteonecrosis
oculomotor
luminescent
io
taxon
infarcted
##umes
multinucle
tanz
erythro
capped
mobilized
whate
abundantly
inserts
390
whatever
turbulence
myometrial
oligomerization
colliculus
myofibroblasts
##atrial
polysomnography
ild
glycosaminoglycan
ji
rac1
averages
sarcolem
tell
postc
indo
lasik
unfamiliar
smoker
disrupts
remnants
##adin
bioinformatic
posttranslational
uganda
isi
transporting
postcon
isotopes
putrescine
aminopyr
cia
lia
genic
antrum
##energe
effluents
biotechnological
tween
sublingual
ctni
scaph
intuitive
acyclovir
neuroticism
abused
extraordinary
tier
##e2
gist
ttr
recombin
harness
chemoradiation
cant
mlr
proves
metallothionein
##uloplasty
##acryl
chimeras
##evalu
aminopeptidase
ikk
cerc
ibm
functionalities
beer
icus
cpd
immobility
fluorodeoxyglucose
kinet
##rolactin
ctgf
anorectal
##cnt
additions
couplings
cloac
tle
neoformans
expands
hapten
hibern
teenagers
nests
endotox
asser
##extraction
brucei
##hibition
oligodeox
sirolimus
endorsed
levofloxacin
dul
intussus
taz
isoc
biogenic
conidia
opson
colors
methylphen
430
##ett
exponent
hne
##exc
dus
precede
teratoma
##albumin
plt
calories
##urization
tailor
316
electrophysiology
thromboplas
hypochlor
pce
tramadol
lav
illustrating
seminiferous
rye
summation
microcys
competit
fingerprints
inad
cardiotoxicity
proteobacteria
tuberculin
cili
greece
administrations
splenomegaly
sio
hypoperfusion
perist
galanin
palliation
peroneal
hydroxybutyrate
##androsterone
yang
r0
reduct
nirs
mop
plank
##ectral
climbing
sensations
goes
##activator
prb
stocks
##ulectomy
tailoring
isoprenaline
##uese
hypertensives
##aterals
unplanned
stasis
hpt
electroencephalography
##uctured
srp
rud
alliance
radionuclides
orphan
nontoxic
bronchoconstr
deserves
heuristic
portuguese
underline
sorbent
compost
mdck
erosive
dum
##uren
endoscopically
fermi
nile
gonads
breakpoint
stau
abp
deciph
racem
insecurity
nighttime
incisional
impregnated
nfat
subsurface
manifests
analytically
aspirates
unavailable
hyperphosph
bred
stoma
261
precedes
dmba
##roplas
lw
autoregulation
dlp
##vc
noisy
coagulase
##ectum
wetland
undefined
supplying
cd36
multicomponent
mrc
shorten
cga
flask
##ospora
##unn
unacceptable
wp
##ogs
303
hypersensitive
296
varus
federation
##ohydro
spatio
worry
aggravated
chlorophenyl
vasomotor
sporulation
##atent
furan
pm10
##pir
icv
gabap
cocktail
ond
470
lca
488
disagreement
tungst
occupying
synaptosomes
adrenocortic
##anglionic
afb1
constituting
microinj
##apr
clearing
##orrected
utilised
thylak
neighbouring
nanod
polyploid
glenoid
stat1
horizon
kal
satisfy
extrapolated
neurofibromatosis
benthic
anthracycline
incompatibility
ppa
ppc
sulfonate
cooperativity
intraoral
##edics
##ryst
equimolar
##overs
aquac
restores
##teat
hemagglutinin
enforcement
##perm
strata
avm
neighbourhood
lepid
##guanosine
oi
videotap
lateralis
ranitidine
controversies
indians
cd68
dmn
hydride
##ocortin
bullous
spar
expose
flagellar
##idial
antiapoptotic
pufas
dag
npp
##ocereb
fats
##activities
intersection
mage
uncharacter
nonre
ctp
homic
appointments
lak
preformed
##otoler
blends
nscs
adjustable
normoxic
orexin
##ibrillar
##olium
b10
##iliensis
cme
primordial
tritiated
amitr
##gravity
collaterals
witnessed
##avastatin
retinitis
c9
races
alfal
youngest
sesquiterp
cataracts
archaeal
##inators
krebs
producer
aggl
##ocarpine
286
tfp
##ups
gabapentin
ito
sway
ferroc
embryonal
##ibenz
narratives
tdp
##anteric
endogenously
##140
minocycline
ntr
disconn
269
##atran
endoscope
difluor
approximated
gallstones
protrusion
polyurethane
exciton
neurites
##olyticus
##rooms
6a
avidity
perforations
truth
remif
##ecretory
isos
periodicity
fastest
overlapped
vero
consultant
mock
hexa
semistr
sterility
clavul
server
277
inhomogeneous
pons
femor
nsc
alfalfa
yoh
lycopene
creative
aap
xeno
##ophthalmitis
occurrences
steers
##tines
computers
revert
chi2
guang
amelioration
visuospatial
depot
behcet
recommends
isoleucine
corneum
##ropion
ultracentrifug
##abp
##omalacia
##1c
##iances
##ectasis
dosimetric
cohesion
##imod
technetium
awakening
##amps
hydroxyphenyl
steroidogenesis
launched
fk506
microem
linolenic
bost
perine
##kins
endang
dimorphism
maximizing
curett
prenatally
fluence
bromocr
semistructured
glute
nonsense
linc
##cha
clom
tourn
ocs
migrant
myelogenous
stabilizes
##asculature
hyperre
##omol
oxa
websites
540
likert
##123
neurobehavioral
amended
##uximab
giardia
defec
##etast
styl
##isole
nepal
ipl
##omimetic
chs
ivus
edentulous
cumulus
hyperresponsiveness
violet
##aya
##athion
infested
regressed
thalam
##acyclines
pef
cens
beings
parallels
##itations
ship
raters
posterolateral
infarctions
macrolide
vaginalis
entrapped
hypokal
b27
##acental
revisions
bronchus
ethiopia
disadvantaged
ants
aqp
pink
##flower
turbidity
5ht
interchange
##kt
metic
##oglycer
fucose
indwelling
intoxic
tavi
292
participatory
seated
musculature
subch
logarithm
amnesia
glucopyranosyl
oliv
occupations
##ylline
schwannoma
hepcidin
etan
landing
xylem
gat
peo
sgl
vats
molybdenum
unexposed
zeolite
drow
hyperglycemic
##aska
sonication
fenton
transepithelial
sublux
##izine
thromboplastin
##amellar
flocks
##ulsification
weakened
##ynes
taa
installed
clarification
remifentanil
drag
niches
pursued
cuticle
0004
desicc
villus
spiroch
urology
subspecial
atherogenesis
osteopontin
lymphoblast
##eutical
##abilis
cotinine
pupils
malnourished
esterified
##arative
saved
kruskal
resistive
tensions
intravesical
##oquine
diverticulum
allopurinol
formally
calend
274
payments
assemblages
scapular
haw
starved
##romedial
chc
dwell
##echoic
spars
conson
##osinus
vacuole
recession
knife
aom
catchment
tav
preimplantation
sales
occupy
foref
refrig
baical
wl
##yps
disposable
##ometrium
hart
conjunctivitis
##vised
digits
asking
deoxynucle
tobr
childbearing
##opathogenesis
jobs
companion
aeration
diterp
cements
##ulans
forceps
carcasses
hym
predictability
##tiana
gonadotrophin
tnp
loneliness
belgium
prs
intensification
iont
appendectomy
androstenedione
circumflex
fluoresc
flt3
herbicides
sy5y
hypocalc
##rance
##ender
vitality
cotyled
undetected
ait
incubations
##rolactone
quinine
disintegr
mainstream
metach
lapse
harr
isov
longus
unemployment
reevalu
fluoroquinolones
ruminants
hyphae
mononucle
335
sting
stall
validating
271
haemophilia
defibrillation
protracted
neutralized
atrazine
guides
docosahexaenoic
watershed
cd5
curettage
lq
puff
ketoconazole
##adhes
wheelchair
fistulae
##oxys
coronavirus
postpro
tod
northeastern
ubiquitously
##eptors
spas
nanometer
##testosterone
leaflets
##bed
necessitates
vastus
budes
299
otc
##etector
resistances
fuels
pigeons
mtd
ctls
assembling
##thiaz
cpl
endophthalmitis
dominate
##operitoneum
cgy
##cls
##domains
quebec
tetras
detached
immunolab
print
invade
burned
##inarily
posttest
##ozoite
cholesteat
unpro
suddenly
##amilies
nights
##rogesterone
cheek
penta
diuresis
##low
extractable
invaded
inevitable
adt
agrob
intercon
reb
pharmacodynamics
rewarding
urch
999
##ulant
basically
budesonide
pervasive
##ultures
cellularity
##ochromic
disintegration
phagocyt
dca
spc
spectro
berber
aggr
gingiv
coincidence
rpm
##benzene
thermodynamics
boston
echocardiogram
hyperemia
##interpre
amounted
erα
accelerometer
8th
rosig
pockets
smi
prrsv
spur
entorh
allied
sirt
retinoids
hpv16
parsim
hydronephrosis
##olyl
condoms
##urant
##aphy
complicate
##relation
##ubic
ceased
reserves
##oconjugates
ssdna
merg
irid
##hydration
matters
hypertriglyceridemia
gills
oxldl
lesional
thiop
cellulase
hypoxanthine
intussusception
rgs
dissections
thymine
caught
myometrium
##hel
steroidogenic
lns
##ository
arthritic
##y1
gapdh
pomc
rcs
erosions
rosiglitazone
taut
##nit
embr
promyel
bismuth
sorgh
trifluoromethyl
chondros
vat
congru
pasture
wetting
##elvic
stomatitis
uncondition
282
aptt
c60
hydroxych
lignoc
examiner
ambulance
premed
relay
##ointing
4s
##ospheres
mesial
foveal
chromaffin
nevus
sumo
osteoarth
parvum
bilingual
inactivate
coq
underestimation
appreciably
850
##vales
##iptine
c5a
##epiandrosterone
guil
eoc
unsuitable
phb
##identate
##pora
gonadotrop
sealed
6h
accult
##adecanoyl
yes
decou
relieving
zea
##represented
ointment
legisl
triceps
ffr
pj
##ercept
adma
colistin
shade
landscapes
##iflex
##gae
inex
dissol
alga
grained
benefited
uneven
waking
##romas
##ulosic
conjunctiva
joined
384
subretinal
hydrostatic
##onite
cytored
suvmax
##erian
depic
generalised
guard
thz
prospect
##imbine
ned
unpaired
##itarian
gsk3
##ofovir
wort
apnoea
brightness
exemplified
penicillium
feeds
##with
excretory
striated
masseter
perfectly
##omac
mvpa
histogram
bronchopulmonary
intrathoracic
endop
multilocus
hyperglycaemia
hmw
##ounting
masticatory
pooling
apap
hydrogenation
houses
aetiological
detergents
estrone
fluoroscopic
filler
chlorp
##iptan
reclass
kim
spf
nonfatal
mammographic
classifiers
tegmental
tdi
dide
il6
holter
photovolta
31p
immunisation
experimentation
phacoem
anticipation
propidium
enteritidis
bloc
automation
esterification
coryne
metamorphosis
unreliable
daf
gssg
trep
b19
indium
phyll
entorhinal
nematic
runx2
pilocarpine
instituted
afflic
asymmetries
lpo
helicase
restrained
mrd
aversion
gip
flowing
phentolamine
##acylglycer
employers
packages
genuine
thrombectomy
reex
wearable
maneuvers
bromocriptine
##ortin
arteriosus
hydrate
cefota
uncorrected
virologic
3m
##xs
stenotic
##plen
##operable
shs
432
cytoprotective
##obox
mbs
ate
laccase
##urv
ovulatory
ntp
pco
stools
blm
psychophysical
elaboration
mpm
redes
masc
##arcin
stretched
cbl
345
qc
##irs
executed
obliteration
lbw
vascularity
##atidic
trisphosphate
colic
purulent
accession
torsional
cgh
pso
impressions
marking
cimt
mbq
etanercept
rafts
oximetry
yohimbine
pristine
xenobiotics
analogy
zymosan
intraspecific
pyelonephritis
hepatobiliary
bisexual
12th
tobramycin
mud
palmar
leiomyoma
excitations
284
soldiers
##inqu
##afe
nonne
eighth
underestimate
duk
3s
stroop
##bosacral
oviposition
polypropylene
ambiguity
oe
spectrin
tard
hyaline
endoderm
hematology
stacked
repositioning
preferably
##idases
paraquat
antipar
conserving
rns
alloc
##aclopr
reserpine
##bert
##ygb
ipscs
dup
sensitizing
latitude
obligatory
anthocyanins
patell
successively
279
neuralgia
ergometer
anterograde
orr
boxes
lithotripsy
instruct
##omys
inadvert
pontine
privile
brucellosis
massachus
phacoemulsification
carbons
accepting
##angli
##opulation
##hand
dehydroepiandrosterone
##inae
complexities
catastroph
massachusetts
stereoselective
gallstone
underway
resistin
oac
##iliation
283
mats
unim
anthocyanin
ewing
##ormone
loadings
##ixed
##zees
centromere
bites
chimpanzees
ctd
333
cyp2e1
nanocar
##ensor
mdp
hits
predisposed
rearranged
hamart
##urement
vaccinations
sacrifice
erroneous
centroid
foodborne
##pers
autofluorescence
brca2
scenes
imprec
slurr
intercostal
##merc
methylphenidate
ambulation
triphosph
ccl2
saponins
fps
unambiguously
ldlr
##azoles
educate
##k3
##exia
doubly
cnp
hypoplastic
##145
interdig
##dam
glucopyranoside
aniline
unreported
phs
satiety
bars
conformers
ensuing
ventromedial
epileptiform
insular
religion
angiograms
sdh
costimulatory
p24
bisphosphonate
cvc
##gap
bak
quintile
tnbc
calcit
truncation
##alazine
periapical
colocalization
21st
dutp
proteus
passeng
treatable
needing
##endor
convales
intramuscularly
powers
##ostin
##yan
cah
intensely
femoris
peripherally
##ococcosis
neocortical
interfered
ladder
tcd
bicuc
mrl
##bian
regrowth
##robe
suturing
aip
elevate
mineralocortic
resides
##aluable
##entery
captures
##rological
deconv
decrement
refused
##rofacial
pads
chik
succeeded
l12
meld
##utz
lumbosacral
sorghum
impacting
urethane
shanghai
ally
unple
behaved
aad
sealing
sox2
consulted
r3
actors
erb
catalysed
fronto
acromegaly
glabr
preclude
hydroperoxide
brassica
preventative
##uberculosis
meningeal
pixels
consangu
##otidyl
poag
precipitating
arsenite
##eke
##ivalence
ptv
##05
organophosph
##ocaps
asm
desert
feedst
seaf
bathing
cefotaxime
equilibration
cdp
amphip
microalgae
fee
##obese
##plasm
diagonal
phototherapy
scholar
diverged
625
checking
industrialized
##xin
fight
agro
294
naprox
alleviating
bj
confident
myelination
fortified
discordance
towns
neighborhoods
512
313
unaware
##male
##mentum
ror
sta
##itize
staurospor
malabsorption
287
##acetamide
tss
gluconeogenesis
##iffusion
vowel
cd15
nomogram
bass
spectac
##alva
notification
##essel
courts
unpleasant
##aniline
mam
yoga
agrobacterium
claudication
##ogold
enox
desatur
squir
nonunion
gpcrs
opacity
##irradi
chlorpromazine
##aer
forelimb
judge
gravit
melanocytic
oophor
revis
deregulation
aster
##bon
financing
exams
premolars
syndromic
thrombocytopenic
admixture
fatalities
deformations
##igration
goss
photography
trnas
send
bronchiectasis
metatarsal
tuk
306
bore
##anx
registers
##anciclovir
ssris
fusiform
elastography
##ohumeral
miu
aquaculture
##ograv
m4
##oacetate
beta3
##duoden
amphibian
diminishing
governments
##oglutarate
##opian
beetle
##oi
pneumophila
bicuculline
318
nontrans
454
##umatic
405
phenoxy
297
unins
##oken
intubated
ivs
##etence
atlant
papillae
##atiles
cdkn
289
dissociative
metastable
husband
calling
disruptions
dsb
camb
perfring
parth
##ogel
recurring
phytohem
lighting
vinblas
milest
lined
##zn
interr
macroglobulin
##orientation
##oguan
insured
malocclusion
nothing
s4
ssb
steam
fouling
##ralpha
[...]
